<unk>	0
<s>	0
</s>	0
<COVID19>	0
<PhD>	0
<MSc>	0
<BSc>	0
<USA>	0
<UK>	0
<EU>	0
<UN>	0
<AI>	0
<ML>	0
<NLP>	0
<GPU>	0
<CPU>	0
<API>	0
<HTTP>	0
<HTTPS>	0
<NUMBER>	0
<YEAR>	0
<DATE>	0
<TIME>	0
<PERCENTAGE>	0
<CURRENCY>	0
<DECIMAL>	0
<FRACTION>	0
<PHONE>	0
<EMAIL>	0
<TECH_TERM>	0
<BRAND_NAME>	0
<HASHTAG>	0
<MENTION>	0
<PAD>	0
<MASK>	0
ar	-0
er	-1
an	-2
in	-3
▁b	-4
en	-5
ın	-6
il	-7
ir	-8
▁k	-9
▁d	-10
▁s	-11
al	-12
▁y	-13
ak	-14
lar	-15
el	-16
▁g	-17
ek	-18
▁o	-19
▁v	-20
et	-21
ay	-22
▁t	-23
▁i	-24
as	-25
am	-26
de	-27
un	-28
da	-29
ler	-30
or	-31
at	-32
es	-33
▁h	-34
iy	-35
▁ve	-36
iz	-37
on	-38
▁B	-39
em	-40
im	-41
ik	-42
ır	-43
▁bir	-44
▁m	-45
aş	-46
ur	-47
▁ol	-48
ed	-49
ul	-50
ıl	-51
▁A	-52
ad	-53
ün	-54
▁ç	-55
ık	-56
is	-57
ür	-58
az	-59
▁K	-60
ım	-61
▁S	-62
ap	-63
le	-64
ah	-65
ab	-66
it	-67
▁T	-68
iş	-69
ış	-70
um	-71
ey	-72
▁p	-73
ız	-74
▁ö	-75
▁il	-76
▁M	-77
▁de	-78
ağ	-79
li	-80
ol	-81
▁iç	-82
▁f	-83
ac	-84
▁D	-85
lan	-86
ların	-87
▁al	-88
dan	-89
st	-90
ok	-91
▁E	-92
▁gö	-93
lı	-94
▁İ	-95
▁H	-96
üz	-97
▁G	-98
ında	-99
ini	-100
▁ş	-101
▁n	-102
▁Y	-103
▁yap	-104
▁için	-105
di	-106
ev	-107
ası	-108
▁ar	-109
ları	-110
ec	-111
ine	-112
du	-113
den	-114
la	-115
esi	-116
inde	-117
ük	-118
uy	-119
uz	-120
leri	-121
▁bu	-122
aç	-123
ığ	-124
eler	-125
iler	-126
ıy	-127
alar	-128
ti	-129
üm	-130
▁P	-131
▁da	-132
af	-133
iyor	-134
ını	-135
▁ile	-136
mak	-137
▁z	-138
▁1	-139
ya	-140
eğ	-141
ilir	-142
▁r	-143
▁et	-144
▁ed	-145
ıs	-146
▁gör	-147
ut	-148
dir	-149
inin	-150
▁baş	-151
▁O	-152
ül	-153
lik	-154
uş	-155
ma	-156
oğ	-157
eb	-158
av	-159
▁an	-160
eç	-161
iniz	-162
lam	-163
iye	-164
us	-165
▁c	-166
▁F	-167
▁ger	-168
tir	-169
▁ver	-170
▁kar	-171
▁ön	-172
ön	-173
▁son	-174
ez	-175
▁gel	-176
ına	-177
dır	-178
mek	-179
▁C	-180
üy	-181
uk	-182
..	-183
larak	-184
üş	-185
▁bil	-186
▁"	-187
ip	-188
len	-189
▁oldu	-190
▁iş	-191
te	-192
ta	-193
▁olarak	-194
▁en	-195
▁kon	-196
ro	-197
lem	-198
ce	-199
▁in	-200
ib	-201
tır	-202
eş	-203
om	-204
▁ay	-205
iğ	-206
▁tar	-207
▁(	-208
▁değ	-209
▁Bu	-210
acak	-211
▁2	-212
ından	-213
aya	-214
lık	-215
anı	-216
▁bul	-217
▁kul	-218
ilm	-219
▁Ç	-220
aha	-221
▁olm	-222
▁N	-223
▁çok	-224
▁olan	-225
ıyor	-226
dı	-227
ürk	-228
▁yer	-229
op	-230
▁R	-231
▁kullan	-232
tan	-233
se	-234
ayı	-235
▁aç	-236
unu	-237
man	-238
imiz	-239
▁or	-240
ığı	-241
ının	-242
lu	-243
ih	-244
yon	-245
eni	-246
ör	-247
▁kal	-248
ede	-249
tı	-250
▁gün	-251
▁ist	-252
ic	-253
▁ad	-254
▁daha	-255
▁sür	-256
ibi	-257
▁kad	-258
▁yıl	-259
▁Ö	-260
öy	-261
ark	-262
▁olduğ	-263
alış	-264
ği	-265
▁V	-266
▁kur	-267
aki	-268
isi	-269
▁her	-270
▁uy	-271
aman	-272
▁-	-273
me	-274
ecek	-275
ada	-276
▁bel	-277
▁var	-278
▁Türk	-279
inden	-280
abilir	-281
cı	-282
ması	-283
ra	-284
eki	-285
▁çalış	-286
ter	-287
▁Ş	-288
▁geç	-289
▁çık	-290
mış	-291
ca	-292
▁An	-293
os	-294
▁yaş	-295
▁yar	-296
ımız	-297
san	-298
eden	-299
ki	-300
▁gibi	-301
▁gerek	-302
▁üz	-303
eh	-304
ilen	-305
alı	-306
▁sağ	-307
ili	-308
ınız	-309
ayan	-310
leş	-311
▁ek	-312
▁bulun	-313
▁3	-314
met	-315
ama	-316
asında	-317
▁üzer	-318
ep	-319
ist	-320
▁ken	-321
▁L	-322
▁yapıl	-323
ken	-324
laş	-325
▁el	-326
ans	-327
öz	-328
eli	-329
▁öz	-330
let	-331
▁U	-332
iyet	-333
eye	-334
üt	-335
ğr	-336
▁zaman	-337
▁oy	-338
ru	-339
unda	-340
▁yön	-341
gi	-342
lerin	-343
daki	-344
ers	-345
▁par	-346
iyle	-347
oy	-348
▁sor	-349
id	-350
ade	-351
▁on	-352
edi	-353
edir	-354
sa	-355
ot	-356
miş	-357
lü	-358
▁kadar	-359
tur	-360
▁Baş	-361
▁dur	-362
▁düş	-363
▁l	-364
üc	-365
tr	-366
lığ	-367
if	-368
aber	-369
ef	-370
▁tek	-371
üyük	-372
▁karş	-373
▁pro	-374
▁dev	-375
lara	-376
arak	-377
est	-378
▁yaz	-379
▁taraf	-380
çek	-381
▁sah	-382
öl	-383
▁uyg	-384
larını	-385
▁ür	-386
▁şek	-387
▁ak	-388
acağ	-389
▁hal	-390
▁Ar	-391
unun	-392
▁Ü	-393
cak	-394
art	-395
siniz	-396
yi	-397
eri	-398
▁top	-399
▁doğ	-400
eceğ	-401
▁say	-402
imi	-403
▁kat	-404
oc	-405
...	-406
men	-407
▁kay	-408
▁belir	-409
nin	-410
tad	-411
deki	-412
▁dön	-413
▁ise	-414
▁kap	-415
üç	-416
malar	-417
ten	-418
▁Bir	-419
abil	-420
ley	-421
▁yan	-422
▁hak	-423
▁sonra	-424
lerini	-425
▁Türkiye	-426
lat	-427
▁Al	-428
▁yeni	-429
orum	-430
üs	-431
iyat	-432
erk	-433
eleri	-434
▁kiş	-435
erek	-436
lad	-437
arı	-438
mas	-439
▁tak	-440
▁hay	-441
elik	-442
▁yak	-443
▁alan	-444
▁veya	-445
▁özel	-446
▁at	-447
esinde	-448
ısı	-449
lay	-450
kan	-451
▁açık	-452
▁4	-453
dür	-454
▁gir	-455
▁yol	-456
sel	-457
▁5	-458
▁ev	-459
▁siz	-460
▁gerçek	-461
▁I	-462
uyor	-463
ildi	-464
▁büyük	-465
▁ne	-466
▁önem	-467
tadır	-468
kin	-469
uç	-470
ster	-471
iv	-472
larda	-473
ram	-474
cu	-475
tedir	-476
▁ort	-477
▁yük	-478
▁uz	-479
iç	-480
▁düz	-481
▁sev	-482
izmet	-483
▁gen	-484
▁yüz	-485
lere	-486
▁den	-487
▁'	-488
asyon	-489
▁öğr	-490
▁ben	-491
atır	-492
▁sit	-493
▁durum	-494
▁şekil	-495
ebilir	-496
od	-497
▁kaz	-498
▁ilg	-499
ılan	-500
una	-501
▁seç	-502
▁değil	-503
▁tarafından	-504
aret	-505
ediğ	-506
▁bak	-507
▁es	-508
iştir	-509
▁tem	-510
▁insan	-511
aat	-512
▁fark	-513
▁hem	-514
ven	-515
▁iyi	-516
▁ilk	-517
ıyla	-518
▁göster	-519
▁kend	-520
▁bağ	-521
ğu	-522
mektedir	-523
dım	-524
uştur	-525
▁biz	-526
▁Z	-527
oz	-528
▁göre	-529
▁söy	-530
▁Ay	-531
ci	-532
por	-533
ağı	-534
asıl	-535
▁şekilde	-536
etim	-537
mesi	-538
▁böl	-539
▁har	-540
ER	-541
▁ok	-542
▁neden	-543
▁Er	-544
ileri	-545
sun	-546
AR	-547
▁tam	-548
anın	-549
▁hizmet	-550
▁eğ	-551
ara	-552
▁olduğu	-553
maya	-554
eyi	-555
alık	-556
▁a	-557
ast	-558
larının	-559
adan	-560
bet	-561
▁çek	-562
uh	-563
▁uygul	-564
kanı	-565
etir	-566
üven	-567
▁tüm	-568
▁İn	-569
cel	-570
maktadır	-571
ımı	-572
▁alt	-573
dur	-574
rı	-575
▁ih	-576
▁sat	-577
ayın	-578
tar	-579
▁içer	-580
tık	-581
enin	-582
ob	-583
▁ul	-584
▁aş	-585
ret	-586
▁iz	-587
▁bilg	-588
▁mil	-589
▁yet	-590
▁kazan	-591
AN	-592
ılı	-593
▁getir	-594
▁sahip	-595
re	-596
▁ül	-597
nı	-598
▁yok	-599
▁ser	-600
iğer	-601
aları	-602
liği	-603
leştir	-604
ran	-605
bir	-606
▁ki	-607
nın	-608
▁tarih	-609
üst	-610
▁10	-611
▁devam	-612
▁işlem	-613
istem	-614
der	-615
▁İl	-616
han	-617
▁faz	-618
▁der	-619
raf	-620
larına	-621
up	-622
▁önemli	-623
siz	-624
▁alın	-625
▁sır	-626
emek	-627
▁değer	-628
dığ	-629
▁san	-630
oş	-631
mam	-632
lığı	-633
olo	-634
▁dün	-635
▁Gün	-636
usu	-637
▁sun	-638
▁etti	-639
▁Kur	-640
▁ilgili	-641
▁göz	-642
▁oyun	-643
▁ya	-644
dığı	-645
azı	-646
itim	-647
lerde	-648
▁Bel	-649
▁tut	-650
esine	-651
▁6	-652
▁as	-653
eniz	-654
iyas	-655
▁olduğunu	-656
▁öğren	-657
▁Öz	-658
▁söz	-659
▁dol	-660
▁az	-661
▁ter	-662
ıcı	-663
▁ede	-664
▁şey	-665
▁bin	-666
▁ülk	-667
▁am	-668
işim	-669
sek	-670
ocuk	-671
▁önce	-672
liğ	-673
ub	-674
ka	-675
iyon	-676
▁kol	-677
▁Ak	-678
lerinin	-679
lendir	-680
▁bah	-681
ilik	-682
ika	-683
▁düşün	-684
ig	-685
esini	-686
▁İş	-687
▁duy	-688
orm	-689
▁İst	-690
erkez	-691
ekt	-692
▁ürün	-693
emiz	-694
▁düzen	-695
ket	-696
üzel	-697
dü	-698
oloj	-699
likle	-700
▁kıs	-701
alan	-702
▁birlik	-703
bul	-704
si	-705
▁ağ	-706
abilirsiniz	-707
tür	-708
▁Kar	-709
lerine	-710
▁En	-711
diğ	-712
▁etk	-713
ehir	-714
▁ama	-715
▁arasında	-716
sız	-717
▁hakk	-718
çe	-719
azır	-720
▁7	-721
▁hayat	-722
▁W	-723
lama	-724
▁zor	-725
ındaki	-726
▁Gen	-727
▁fiyat	-728
▁güven	-729
ulu	-730
öyle	-731
▁yatır	-732
▁fazla	-733
▁sistem	-734
larında	-735
gün	-736
▁dest	-737
▁is	-738
ide	-739
▁bek	-740
▁olur	-741
▁taş	-742
esin	-743
ye	-744
yal	-745
lardan	-746
ıp	-747
▁tan	-748
üyor	-749
▁Son	-750
ça	-751
iyorum	-752
asar	-753
▁Bak	-754
tu	-755
▁konuş	-756
▁iki	-757
▁içinde	-758
og	-759
tik	-760
▁tes	-761
tığı	-762
▁diğer	-763
diği	-764
tü	-765
▁im	-766
anbul	-767
▁olacak	-768
▁öl	-769
eyen	-770
adece	-771
▁–	-772
gram	-773
ünde	-774
▁dış	-775
▁birlikte	-776
dik	-777
▁bas	-778
acı	-779
▁gelen	-780
▁kr	-781
▁mes	-782
▁hazır	-783
ilmesi	-784
ici	-785
▁ulaş	-786
▁olmak	-787
▁ark	-788
üp	-789
▁Haber	-790
maz	-791
ne	-792
ilerin	-793
▁if	-794
▁aynı	-795
eği	-796
▁nasıl	-797
meye	-798
▁dik	-799
rup	-800
▁hiç	-801
net	-802
▁dönem	-803
▁saat	-804
▁8	-805
▁ot	-806
▁yapılan	-807
ing	-808
▁eden	-809
▁kor	-810
▁|	-811
▁:	-812
ladı	-813
ılık	-814
▁farklı	-815
eg	-816
▁güzel	-817
▁Başkanı	-818
lah	-819
larla	-820
kat	-821
▁kab	-822
ort	-823
▁görün	-824
tığ	-825
irket	-826
iyoruz	-827
▁Kon	-828
▁Ek	-829
▁Pro	-830
▁J	-831
▁İs	-832
▁Cum	-833
00	-834
▁boy	-835
▁kö	-836
▁konu	-837
leme	-838
▁haber	-839
▁para	-840
▁sal	-841
dar	-842
▁bur	-843
larımız	-844
▁tamam	-845
yla	-846
▁eş	-847
anlı	-848
▁İstanbul	-849
lerinde	-850
tiğ	-851
dem	-852
▁art	-853
▁dil	-854
ov	-855
▁kam	-856
▁kim	-857
▁yardım	-858
▁haf	-859
▁Or	-860
▁er	-861
▁Bil	-862
▁hes	-863
▁karşı	-864
▁Beled	-865
▁sen	-866
asına	-867
▁tür	-868
▁üst	-869
luk	-870
▁ör	-871
adaş	-872
fa	-873
▁u	-874
▁çocuk	-875
ost	-876
▁mal	-877
▁yüksek	-878
ızı	-879
▁çıkar	-880
▁Eğ	-881
▁önc	-882
▁iht	-883
kü	-884
eket	-885
▁kurul	-886
isinde	-887
▁Av	-888
▁bölg	-889
inizi	-890
▁doğru	-891
nun	-892
▁yatırım	-893
▁tekn	-894
▁diye	-895
."	-896
▁sık	-897
▁kan	-898
siyon	-899
aştır	-900
hur	-901
▁değiş	-902
ütün	-903
▁karar	-904
▁kullanıl	-905
▁destek	-906
▁sadece	-907
eme	-908
▁oluştur	-909
▁anlam	-910
▁iliş	-911
uv	-912
▁mü	-913
▁olması	-914
▁tel	-915
ahat	-916
▁ban	-917
aylaş	-918
unuz	-919
EN	-920
adığ	-921
▁görev	-922
oğlu	-923
ünü	-924
ektör	-925
▁Mü	-926
▁dedi	-927
esinin	-928
▁kendi	-929
▁mak	-930
▁dikkat	-931
ebil	-932
▁em	-933
▁Bur	-934
dık	-935
asını	-936
osyal	-937
▁hav	-938
▁0	-939
▁belirt	-940
İN	-941
▁ik	-942
lük	-943
anda	-944
ore	-945
▁bulunan	-946
▁tab	-947
usunda	-948
▁üy	-949
adı	-950
lerden	-951
ğü	-952
▁mod	-953
▁olduk	-954
▁oyn	-955
okt	-956
azar	-957
▁9	-958
layan	-959
▁hız	-960
ivers	-961
▁uygun	-962
üne	-963
onom	-964
▁genel	-965
▁dav	-966
▁çev	-967
▁etm	-968
▁eğitim	-969
end	-970
sam	-971
atı	-972
▁w	-973
iversit	-974
▁katıl	-975
lak	-976
gel	-977
▁gön	-978
▁gerçekleştir	-979
▁mut	-980
▁eder	-981
avaş	-982
çi	-983
▁Genel	-984
▁güç	-985
▁arkadaş	-986
tal	-987
na	-988
com	-989
▁mad	-990
ırak	-991
▁sorun	-992
rak	-993
▁çalışmalar	-994
▁şirket	-995
▁hakkında	-996
▁proj	-997
eti	-998
rıca	-999
▁üzere	-1000
▁karşıl	-1001
▁kit	-1002
eda	-1003
ge	-1004
▁söyl	-1005
AL	-1006
lanan	-1007
mıştır	-1008
▁hat	-1009
aj	-1010
▁sonr	-1011
▁bit	-1012
enk	-1013
▁/	-1014
ece	-1015
bol	-1016
▁biri	-1017
▁bun	-1018
▁gid	-1019
▁bile	-1020
res	-1021
▁fir	-1022
▁“	-1023
oh	-1024
IN	-1025
ET	-1026
▁Tar	-1027
elerin	-1028
▁Es	-1029
▁AB	-1030
çok	-1031
lerinden	-1032
▁Tek	-1033
▁Mil	-1034
ent	-1035
larından	-1036
▁üret	-1037
ant	-1038
▁Ad	-1039
▁oluş	-1040
▁ihtiy	-1041
▁çöz	-1042
▁başar	-1043
▁kaç	-1044
▁edil	-1045
bar	-1046
▁hareket	-1047
▁bırak	-1048
▁Her	-1049
▁yaşam	-1050
▁sın	-1051
nak	-1052
▁bazı	-1053
▁git	-1054
duğu	-1055
lerimiz	-1056
▁bahis	-1057
mi	-1058
▁El	-1059
▁uygulam	-1060
▁üzerinde	-1061
tem	-1062
AK	-1063
sal	-1064
lerle	-1065
iği	-1066
▁etmek	-1067
▁düny	-1068
ümüz	-1069
lamak	-1070
▁Cumhur	-1071
▁tal	-1072
▁geçir	-1073
muş	-1074
▁mev	-1075
gil	-1076
ri	-1077
efon	-1078
▁yür	-1079
▁uzun	-1080
baş	-1081
▁anlat	-1082
üşter	-1083
▁hast	-1084
▁su	-1085
kı	-1086
lum	-1087
▁ediyor	-1088
▁Ben	-1089
▁muh	-1090
mayı	-1091
▁kadın	-1092
min	-1093
▁Ev	-1094
ücret	-1095
▁teş	-1096
▁ortaya	-1097
dından	-1098
lenen	-1099
▁merkez	-1100
ternet	-1101
edik	-1102
may	-1103
gan	-1104
▁mi	-1105
▁ücret	-1106
EL	-1107
▁Ün	-1108
▁kolay	-1109
▁üzerine	-1110
▁paylaş	-1111
▁Başkan	-1112
▁fa	-1113
▁yönet	-1114
atik	-1115
▁has	-1116
▁program	-1117
umuz	-1118
▁plan	-1119
ucu	-1120
▁15	-1121
eşit	-1122
ver	-1123
▁görüş	-1124
▁seb	-1125
sanız	-1126
rar	-1127
he	-1128
amaz	-1129
▁açıklam	-1130
▁,	-1131
▁Yap	-1132
elim	-1133
adığı	-1134
olu	-1135
▁Par	-1136
▁geliş	-1137
▁Dün	-1138
▁pol	-1139
▁tasar	-1140
obil	-1141
masını	-1142
▁ifade	-1143
▁San	-1144
edav	-1145
▁kişi	-1146
sin	-1147
ünkü	-1148
▁piyas	-1149
ayıs	-1150
▁yorum	-1151
▁Ancak	-1152
ale	-1153
akat	-1154
ilmiş	-1155
edef	-1156
▁ancak	-1157
gul	-1158
▁sağlık	-1159
istan	-1160
▁şu	-1161
▁yay	-1162
urt	-1163
▁op	-1164
aba	-1165
▁yüzde	-1166
▁As	-1167
vur	-1168
▁met	-1169
▁Müdür	-1170
lim	-1171
trol	-1172
▁yılında	-1173
▁maç	-1174
tif	-1175
cih	-1176
azet	-1177
▁kabul	-1178
▁koy	-1179
▁Biz	-1180
▁yayın	-1181
▁sı	-1182
suz	-1183
▁Yar	-1184
▁başka	-1185
▁dem	-1186
iyaret	-1187
▁ayr	-1188
mer	-1189
▁Dev	-1190
▁birçok	-1191
▁bütün	-1192
▁bilgi	-1193
▁kom	-1194
İL	-1195
▁yas	-1196
üçük	-1197
lıy	-1198
anıt	-1199
gı	-1200
▁gönder	-1201
▁araç	-1202
▁tah	-1203
▁bölüm	-1204
▁yaklaş	-1205
AT	-1206
oğan	-1207
▁film	-1208
meler	-1209
acağı	-1210
ediği	-1211
▁ardından	-1212
▁içerisinde	-1213
▁diy	-1214
▁milyon	-1215
▁edeb	-1216
▁olabilir	-1217
▁han	-1218
eceği	-1219
ök	-1220
ıya	-1221
asının	-1222
▁Yeni	-1223
▁Yıl	-1224
▁%	-1225
▁Tem	-1226
▁edilen	-1227
duğ	-1228
▁kapsam	-1229
▁Bakan	-1230
▁bilin	-1231
▁Ön	-1232
▁kes	-1233
masına	-1234
cek	-1235
▁üç	-1236
▁çeşit	-1237
ag	-1238
İR	-1239
indeki	-1240
▁kurum	-1241
ıldı	-1242
▁konusunda	-1243
enek	-1244
▁tr	-1245
▁Özel	-1246
▁his	-1247
gin	-1248
isini	-1249
▁yakın	-1250
mez	-1251
orex	-1252
ch	-1253
▁Büyük	-1254
▁uç	-1255
▁tercih	-1256
det	-1257
anan	-1258
▁12	-1259
ılması	-1260
ültür	-1261
▁res	-1262
alt	-1263
ali	-1264
▁At	-1265
ilere	-1266
▁değerlendir	-1267
nde	-1268
▁rahat	-1269
olar	-1270
▁id	-1271
▁telefon	-1272
ele	-1273
▁20	-1274
ile	-1275
▁vat	-1276
▁Tr	-1277
▁yapan	-1278
▁ABD	-1279
▁din	-1280
▁kalit	-1281
▁Kan	-1282
AS	-1283
ılır	-1284
▁un	-1285
▁mah	-1286
▁hep	-1287
▁üzerinden	-1288
abı	-1289
malı	-1290
▁Ser	-1291
van	-1292
madan	-1293
kün	-1294
▁yerine	-1295
andaş	-1296
▁dah	-1297
ank	-1298
▁hedef	-1299
ışı	-1300
▁müşter	-1301
ıma	-1302
ES	-1303
ust	-1304
▁av	-1305
▁öğrenc	-1306
▁sonuç	-1307
sik	-1308
▁ün	-1309
▁İç	-1310
acaktır	-1311
icaret	-1312
eyin	-1313
ize	-1314
oğraf	-1315
ayet	-1316
kara	-1317
▁İz	-1318
▁gelir	-1319
▁böyle	-1320
▁vardır	-1321
manın	-1322
▁geliştir	-1323
▁man	-1324
lemek	-1325
OR	-1326
isine	-1327
iyesi	-1328
▁kez	-1329
▁sosyal	-1330
arası	-1331
leyen	-1332
▁kır	-1333
▁yapmak	-1334
▁ziyaret	-1335
ebilirsiniz	-1336
uc	-1337
rupa	-1338
ücad	-1339
ber	-1340
▁sektör	-1341
▁mı	-1342
undan	-1343
oğu	-1344
ırs	-1345
▁Mah	-1346
▁dak	-1347
▁kontrol	-1348
ekk	-1349
oğun	-1350
▁bugün	-1351
ıştır	-1352
imdi	-1353
AY	-1354
▁kav	-1355
ıyoruz	-1356
▁tur	-1357
ow	-1358
▁mas	-1359
AM	-1360
▁e	-1361
isyon	-1362
▁Yön	-1363
▁incel	-1364
▁zamanda	-1365
ohbet	-1366
▁ekonom	-1367
ud	-1368
▁müm	-1369
hangi	-1370
nek	-1371
erli	-1372
ıyorum	-1373
ari	-1374
),	-1375
uluk	-1376
üb	-1377
▁yaptığı	-1378
▁Üniversit	-1379
▁od	-1380
▁mey	-1381
akk	-1382
▁On	-1383
EK	-1384
▁giriş	-1385
▁Kad	-1386
▁bor	-1387
▁Top	-1388
izi	-1389
üküm	-1390
▁indir	-1391
▁Merkez	-1392
▁görül	-1393
erj	-1394
▁tav	-1395
gın	-1396
▁devlet	-1397
▁hesap	-1398
▁takip	-1399
▁çalışan	-1400
▁araştır	-1401
▁Hal	-1402
▁elde	-1403
-1	-1404
▁başvur	-1405
mir	-1406
▁yen	-1407
▁gereken	-1408
▁vur	-1409
▁Bunun	-1410
landır	-1411
▁Kul	-1412
▁Avrupa	-1413
▁oldukça	-1414
▁mümkün	-1415
miştir	-1416
sunuz	-1417
▁li	-1418
ektr	-1419
▁mer	-1420
▁Ne	-1421
▁dünya	-1422
ünün	-1423
unca	-1424
▁Ok	-1425
LAR	-1426
▁iti	-1427
▁Ayrıca	-1428
▁dönüş	-1429
▁nedeniyle	-1430
alat	-1431
aliyet	-1432
▁ber	-1433
ıt	-1434
▁kısa	-1435
▁bağlı	-1436
▁Kas	-1437
abilecek	-1438
▁ses	-1439
▁11	-1440
▁kaynak	-1441
oloji	-1442
▁artık	-1443
▁size	-1444
las	-1445
▁toplan	-1446
▁zar	-1447
▁yöntem	-1448
aların	-1449
lıyor	-1450
amak	-1451
▁Ey	-1452
▁Kal	-1453
▁vatandaş	-1454
▁büy	-1455
▁takım	-1456
▁Kay	-1457
EM	-1458
dığını	-1459
▁olay	-1460
▁yağ	-1461
▁ilet	-1462
▁Gel	-1463
▁Sağ	-1464
▁tedav	-1465
▁Dr	-1466
▁seçim	-1467
▁geçen	-1468
amp	-1469
doğan	-1470
▁isim	-1471
acağını	-1472
▁kız	-1473
▁Allah	-1474
▁cev	-1475
taj	-1476
▁kayı	-1477
UR	-1478
sil	-1479
▁Ankara	-1480
▁yarat	-1481
▁günü	-1482
▁mücad	-1483
▁geri	-1484
▁sınır	-1485
▁özellik	-1486
▁veren	-1487
kinci	-1488
▁mik	-1489
▁öde	-1490
▁itibar	-1491
▁benz	-1492
▁yüksel	-1493
▁toplum	-1494
▁geldi	-1495
▁Der	-1496
▁tat	-1497
▁olsun	-1498
itik	-1499
uslar	-1500
▁benim	-1501
iyi	-1502
▁mark	-1503
▁Ol	-1504
çı	-1505
▁kullanıcı	-1506
▁Oy	-1507
▁bey	-1508
muz	-1509
of	-1510
▁kaldır	-1511
▁30	-1512
ate	-1513
▁inan	-1514
▁AK	-1515
lül	-1516
▁spor	-1517
▁altında	-1518
umlu	-1519
▁ilç	-1520
▁med	-1521
HP	-1522
▁herhangi	-1523
▁mem	-1524
▁söyledi	-1525
▁Tur	-1526
▁nokt	-1527
▁model	-1528
▁süre	-1529
▁herk	-1530
▁hiçbir	-1531
▁Şub	-1532
elerini	-1533
eğin	-1534
▁gerekir	-1535
▁dir	-1536
▁Haz	-1537
▁çevr	-1538
▁bunu	-1539
fer	-1540
manız	-1541
▁anlaş	-1542
isk	-1543
tiği	-1544
▁oran	-1545
tiv	-1546
gu	-1547
▁hızlı	-1548
▁engel	-1549
▁hemen	-1550
▁etkin	-1551
▁per	-1552
▁genç	-1553
isinin	-1554
▁yine	-1555
▁küçük	-1556
▁internet	-1557
aban	-1558
▁bar	-1559
▁Eğitim	-1560
▁almak	-1561
▁Ko	-1562
umu	-1563
otoğraf	-1564
▁Daha	-1565
co	-1566
landı	-1567
ekli	-1568
▁edildi	-1569
uğ	-1570
ulan	-1571
▁temel	-1572
üsü	-1573
nda	-1574
▁fay	-1575
▁koş	-1576
▁Belediye	-1577
for	-1578
tım	-1579
▁hafta	-1580
dana	-1581
din	-1582
▁rek	-1583
▁kil	-1584
cut	-1585
uyla	-1586
ani	-1587
▁İlk	-1588
duk	-1589
ekkür	-1590
▁okul	-1591
▁Hay	-1592
▁Has	-1593
ite	-1594
▁cez	-1595
elere	-1596
▁canlı	-1597
all	-1598
pr	-1599
▁pek	-1600
ON	-1601
▁bildir	-1602
▁ekip	-1603
mem	-1604
▁ac	-1605
lüğü	-1606
▁edilm	-1607
ılmış	-1608
dim	-1609
▁değişik	-1610
bak	-1611
▁tük	-1612
eceğini	-1613
▁sab	-1614
▁Gör	-1615
▁çözüm	-1616
▁faaliyet	-1617
İK	-1618
cü	-1619
tin	-1620
mel	-1621
▁olup	-1622
▁satış	-1623
▁yönelik	-1624
▁Ama	-1625
form	-1626
br	-1627
▁siyas	-1628
imizin	-1629
▁mu	-1630
şehir	-1631
LER	-1632
▁konusu	-1633
▁değiştir	-1634
▁Bah	-1635
ecektir	-1636
dın	-1637
▁halk	-1638
▁başladı	-1639
alarda	-1640
▁sürec	-1641
▁adet	-1642
▁Uy	-1643
▁Uz	-1644
inize	-1645
▁kesin	-1646
▁ait	-1647
▁Forex	-1648
▁ağır	-1649
ısında	-1650
▁Böl	-1651
▁şeh	-1652
utbol	-1653
▁Erdoğan	-1654
▁bizim	-1655
▁tekrar	-1656
elen	-1657
▁savaş	-1658
ilerini	-1659
▁beraber	-1660
▁Rus	-1661
▁temiz	-1662
▁bunun	-1663
İY	-1664
İM	-1665
▁eski	-1666
erasyon	-1667
ınızı	-1668
tim	-1669
▁oluyor	-1670
pan	-1671
ij	-1672
▁renk	-1673
maları	-1674
▁ilişk	-1675
▁Ot	-1676
▁Mart	-1677
▁saldır	-1678
elerde	-1679
▁Nis	-1680
amı	-1681
▁değildir	-1682
▁özellikle	-1683
ift	-1684
eyim	-1685
▁Kr	-1686
▁soru	-1687
▁Mar	-1688
▁sak	-1689
▁yeniden	-1690
▁sayf	-1691
adık	-1692
alım	-1693
▁Bay	-1694
AD	-1695
can	-1696
▁of	-1697
▁erk	-1698
▁Dünya	-1699
▁sin	-1700
dum	-1701
▁yardımcı	-1702
imizi	-1703
larıyla	-1704
▁kir	-1705
esel	-1706
AŞ	-1707
▁vak	-1708
adığını	-1709
üler	-1710
▁sey	-1711
▁.	-1712
▁çağ	-1713
▁Em	-1714
etay	-1715
▁uzak	-1716
▁ihtiyaç	-1717
ni	-1718
▁25	-1719
▁ner	-1720
▁rağ	-1721
lilik	-1722
▁kıy	-1723
▁kut	-1724
▁cih	-1725
▁ask	-1726
▁şart	-1727
▁serv	-1728
afa	-1729
▁Ve	-1730
▁TL	-1731
▁18	-1732
▁hüküm	-1733
.|	-1734
▁geniş	-1735
ırken	-1736
acağız	-1737
▁web	-1738
▁13	-1739
▁sürdür	-1740
▁Üniversitesi	-1741
▁olmayan	-1742
iyeti	-1743
esinden	-1744
be	-1745
▁çalışma	-1746
bah	-1747
▁biraz	-1748
▁*	-1749
▁Tekn	-1750
ukuk	-1751
▁sil	-1752
ayfa	-1753
etmen	-1754
lo	-1755
▁müz	-1756
▁gerekli	-1757
latform	-1758
enc	-1759
▁ortak	-1760
imize	-1761
üf	-1762
▁sayesinde	-1763
▁In	-1764
iran	-1765
▁mevcut	-1766
▁kitap	-1767
▁çıkan	-1768
asin	-1769
▁satın	-1770
▁iddi	-1771
▁yarar	-1772
▁Güncel	-1773
▁24	-1774
meden	-1775
deş	-1776
ve	-1777
▁14	-1778
asındaki	-1779
▁Ah	-1780
lardır	-1781
▁çeşitli	-1782
▁alış	-1783
▁ail	-1784
ilerine	-1785
▁suç	-1786
müş	-1787
▁rağmen	-1788
▁Kasım	-1789
▁str	-1790
▁arac	-1791
ısından	-1792
uyu	-1793
▁Dem	-1794
▁İngil	-1795
▁dair	-1796
▁sayı	-1797
arken	-1798
ana	-1799
▁Mayıs	-1800
▁bağlan	-1801
larınız	-1802
▁otom	-1803
cort	-1804
▁öner	-1805
▁Bey	-1806
dül	-1807
▁sav	-1808
▁talep	-1809
▁boz	-1810
ime	-1811
▁sohbet	-1812
▁sanat	-1813
sman	-1814
efer	-1815
▁adım	-1816
▁Aç	-1817
uslararası	-1818
nız	-1819
▁Meh	-1820
line	-1821
▁yönetim	-1822
▁edin	-1823
▁diz	-1824
izm	-1825
▁Çünkü	-1826
▁hiss	-1827
▁dolayı	-1828
edim	-1829
▁isteyen	-1830
▁Belediyesi	-1831
alet	-1832
▁Spor	-1833
▁Kom	-1834
aten	-1835
azi	-1836
▁ilişkin	-1837
▁yat	-1838
lis	-1839
▁sıra	-1840
lek	-1841
▁pazar	-1842
▁Tarih	-1843
ww	-1844
▁istem	-1845
▁Öğr	-1846
meyi	-1847
▁16	-1848
▁kapsamında	-1849
▁fin	-1850
▁doğr	-1851
).	-1852
▁Et	-1853
▁teşekkür	-1854
esiyle	-1855
leriyle	-1856
düğ	-1857
apor	-1858
▁tık	-1859
▁Ab	-1860
Bu	-1861
▁gerçekleş	-1862
▁Sur	-1863
▁lis	-1864
alnız	-1865
▁Har	-1866
ezon	-1867
▁Ör	-1868
▁teknik	-1869
kil	-1870
▁birbir	-1871
▁Ali	-1872
▁Devlet	-1873
amız	-1874
▁can	-1875
LI	-1876
hat	-1877
▁otur	-1878
▁ders	-1879
▁ticaret	-1880
ünden	-1881
▁istediğ	-1882
▁üretim	-1883
ıntı	-1884
▁çiz	-1885
▁dayan	-1886
sınız	-1887
▁açıl	-1888
▁Hav	-1889
▁yoğun	-1890
erson	-1891
lında	-1892
ook	-1893
▁[	-1894
▁zarar	-1895
ılığ	-1896
▁ölç	-1897
▁nedenle	-1898
asından	-1899
ınıf	-1900
imde	-1901
▁»	-1902
▁onun	-1903
▁Nisan	-1904
▁Muh	-1905
▁Tüm	-1906
▁amaç	-1907
▁sitesi	-1908
▁oyuncu	-1909
▁olacaktır	-1910
▁Temmuz	-1911
▁tanım	-1912
▁fotoğraf	-1913
▁dahil	-1914
şam	-1915
▁şekl	-1916
▁Ocak	-1917
▁parç	-1918
▁yanı	-1919
▁millet	-1920
ince	-1921
isay	-1922
▁bakım	-1923
▁Eğer	-1924
▁seçenek	-1925
lüğ	-1926
▁yani	-1927
▁Cumhurbaş	-1928
one	-1929
▁sizin	-1930
▁boş	-1931
ücü	-1932
▁Eylül	-1933
▁hale	-1934
atif	-1935
▁örg	-1936
▁sağlay	-1937
eceğiniz	-1938
yle	-1939
ba	-1940
▁uğr	-1941
cısı	-1942
▁kayıt	-1943
bu	-1944
▁imz	-1945
▁Ekim	-1946
▁gez	-1947
▁elektr	-1948
▁kültür	-1949
pit	-1950
▁seviy	-1951
kaç	-1952
▁şehir	-1953
isel	-1954
▁Tak	-1955
taş	-1956
▁durumda	-1957
▁iy	-1958
day	-1959
▁güncel	-1960
▁Amer	-1961
▁ip	-1962
tep	-1963
ren	-1964
▁detay	-1965
▁ikinci	-1966
▁istiyor	-1967
ilecek	-1968
alarında	-1969
▁boyunca	-1970
mal	-1971
▁Çok	-1972
▁sahibi	-1973
▁saç	-1974
▁kısm	-1975
▁bay	-1976
▁inş	-1977
▁amac	-1978
▁sok	-1979
rim	-1980
tiğini	-1981
▁Doğ	-1982
▁yaşan	-1983
AB	-1984
ati	-1985
▁artır	-1986
ons	-1987
▁toplam	-1988
yar	-1989
▁İzmir	-1990
▁işlet	-1991
lif	-1992
▁yemek	-1993
elerinin	-1994
ört	-1995
▁Aralık	-1996
▁17	-1997
▁anda	-1998
▁teh	-1999
▁sar	-2000
▁Haziran	-2001
uan	-2002
etin	-2003
etler	-2004
ED	-2005
▁adam	-2006
▁hangi	-2007
▁erkek	-2008
ere	-2009
▁yaklaşık	-2010
▁dakika	-2011
▁dışında	-2012
▁konuştu	-2013
▁ayrı	-2014
lin	-2015
▁beklen	-2016
▁100	-2017
▁Kat	-2018
▁fayd	-2019
▁mağ	-2020
▁olsa	-2021
▁tarihi	-2022
▁Yaş	-2023
kın	-2024
▁gerekiyor	-2025
▁rak	-2026
▁Parti	-2027
▁ortam	-2028
▁karşılaş	-2029
mesini	-2030
▁Gir	-2031
▁bilgiler	-2032
▁ederek	-2033
▁Sağlık	-2034
ener	-2035
▁yaptı	-2036
▁çar	-2037
▁dolar	-2038
rafik	-2039
▁Bit	-2040
ebek	-2041
diğini	-2042
okr	-2043
▁unut	-2044
▁verdi	-2045
▁grup	-2046
▁Mer	-2047
su	-2048
▁hey	-2049
▁madde	-2050
▁burada	-2051
▁Mehmet	-2052
▁Ul	-2053
▁Pol	-2054
▁Alt	-2055
▁etkil	-2056
▁enerj	-2057
▁dok	-2058
inci	-2059
▁Osman	-2060
ıda	-2061
▁aldı	-2062
▁uygulan	-2063
iliğ	-2064
▁ey	-2065
▁Bun	-2066
▁sebep	-2067
▁num	-2068
▁tep	-2069
▁kah	-2070
luluk	-2071
▁Yük	-2072
▁kuruluş	-2073
ülen	-2074
▁aşağı	-2075
aliz	-2076
asa	-2077
▁bize	-2078
▁ettiğ	-2079
▁onu	-2080
isayar	-2081
▁cihaz	-2082
▁Kap	-2083
▁kaybet	-2084
▁organ	-2085
▁edecek	-2086
elerine	-2087
sın	-2088
▁Alman	-2089
▁Geç	-2090
erler	-2091
▁st	-2092
ışık	-2093
üğ	-2094
emi	-2095
▁gelecek	-2096
İS	-2097
▁başlat	-2098
tt	-2099
▁ettiği	-2100
▁fırs	-2101
meyen	-2102
▁cevap	-2103
▁19	-2104
yo	-2105
▁Söz	-2106
ind	-2107
▁Ver	-2108
anlar	-2109
rik	-2110
atej	-2111
ideo	-2112
İZ	-2113
ılım	-2114
▁Prof	-2115
vet	-2116
▁halinde	-2117
▁kullanım	-2118
▁dep	-2119
ÜN	-2120
▁risk	-2121
▁Yaz	-2122
anış	-2123
▁süreç	-2124
ira	-2125
IR	-2126
▁iletişim	-2127
▁uzman	-2128
▁geliyor	-2129
▁aday	-2130
abancı	-2131
olojik	-2132
eştir	-2133
menin	-2134
▁fik	-2135
▁bana	-2136
▁Deniz	-2137
▁malz	-2138
▁bekl	-2139
▁yaptığ	-2140
üle	-2141
▁mesaj	-2142
▁Haberleri	-2143
▁gazet	-2144
▁sezon	-2145
▁Hak	-2146
masının	-2147
▁bon	-2148
mesine	-2149
ormal	-2150
▁Man	-2151
▁platform	-2152
▁adına	-2153
mayan	-2154
▁kişinin	-2155
▁Sit	-2156
▁men	-2157
▁doğal	-2158
▁İnsan	-2159
to	-2160
▁tespit	-2161
▁kork	-2162
▁sağlan	-2163
▁ana	-2164
abet	-2165
mey	-2166
▁belg	-2167
luğ	-2168
▁çıktı	-2169
▁Kurulu	-2170
asino	-2171
▁aktar	-2172
▁adres	-2173
elidir	-2174
layı	-2175
▁ko	-2176
ümü	-2177
▁ma	-2178
alarını	-2179
▁Af	-2180
alama	-2181
▁j	-2182
▁cid	-2183
egor	-2184
▁açısından	-2185
▁hatır	-2186
alara	-2187
▁gider	-2188
▁başkan	-2189
usal	-2190
ediye	-2191
oktor	-2192
▁sıcak	-2193
-0	-2194
talya	-2195
▁CHP	-2196
▁Ter	-2197
▁yürüt	-2198
▁net	-2199
hal	-2200
ilerinin	-2201
▁Bar	-2202
▁belli	-2203
▁kayb	-2204
▁Çocuk	-2205
▁tart	-2206
▁nak	-2207
▁Ağu	-2208
▁Sam	-2209
▁düşük	-2210
atör	-2211
gun	-2212
▁cin	-2213
▁şöyle	-2214
▁sözleş	-2215
ırı	-2216
▁mek	-2217
aması	-2218
▁Şubat	-2219
İT	-2220
▁dar	-2221
▁temsil	-2222
▁türlü	-2223
▁sürekli	-2224
▁başarılı	-2225
▁Güven	-2226
▁biç	-2227
▁yanında	-2228
▁verilen	-2229
ital	-2230
▁list	-2231
ınıza	-2232
▁edebilir	-2233
tay	-2234
▁ab	-2235
▁end	-2236
antaj	-2237
▁korum	-2238
UN	-2239
▁Hat	-2240
emin	-2241
▁futbol	-2242
▁ister	-2243
▁kullanılan	-2244
elikle	-2245
evi	-2246
vek	-2247
▁Mes	-2248
▁nit	-2249
▁pat	-2250
▁Kor	-2251
iliği	-2252
▁21	-2253
▁yalnız	-2254
▁prof	-2255
irüs	-2256
▁yapı	-2257
inc	-2258
ÜR	-2259
▁hava	-2260
▁Değ	-2261
coin	-2262
▁tarihinde	-2263
adaki	-2264
▁Gazet	-2265
▁tüket	-2266
▁sağlamak	-2267
▁kapat	-2268
▁konuda	-2269
▁örnek	-2270
siy	-2271
-2	-2272
▁birkaç	-2273
onu	-2274
meniz	-2275
lendi	-2276
▁iler	-2277
▁le	-2278
AZ	-2279
▁ücretsiz	-2280
▁Kır	-2281
▁sistemi	-2282
▁medya	-2283
▁köy	-2284
DE	-2285
▁tasarım	-2286
ack	-2287
▁giy	-2288
▁Ür	-2289
▁gec	-2290
▁Siz	-2291
iliyor	-2292
ustafa	-2293
▁kötü	-2294
ceğ	-2295
▁şeklinde	-2296
bi	-2297
▁nedir	-2298
▁teslim	-2299
miyor	-2300
ısını	-2301
▁ham	-2302
ült	-2303
emizde	-2304
▁işaret	-2305
log	-2306
ladığ	-2307
ii	-2308
▁davran	-2309
▁yarış	-2310
abiliyor	-2311
▁Kadın	-2312
▁adı	-2313
▁sırasında	-2314
lk	-2315
ıyı	-2316
asıyla	-2317
▁kardeş	-2318
uma	-2319
▁mez	-2320
▁tartış	-2321
▁sağlam	-2322
▁sınıf	-2323
▁başlam	-2324
anız	-2325
stos	-2326
▁Bakanlığı	-2327
uvar	-2328
▁Yorum	-2329
lış	-2330
aca	-2331
▁İşte	-2332
gür	-2333
▁terör	-2334
▁Kullan	-2335
▁2.	-2336
ımda	-2337
▁Bul	-2338
▁izin	-2339
▁anlay	-2340
elerinde	-2341
▁hastan	-2342
▁herkes	-2343
▁miktar	-2344
▁hesab	-2345
▁Merkezi	-2346
UL	-2347
▁Çin	-2348
mekte	-2349
sta	-2350
iri	-2351
▁poz	-2352
aket	-2353
▁kas	-2354
ımıza	-2355
▁Yardım	-2356
▁yazı	-2357
▁Ağustos	-2358
//	-2359
▁yık	-2360
▁bulundu	-2361
10	-2362
osu	-2363
▁Su	-2364
▁şimdi	-2365
ladığı	-2366
lüm	-2367
▁güçlü	-2368
▁yüzden	-2369
lanmış	-2370
▁başlay	-2371
öv	-2372
ttp	-2373
▁yurt	-2374
▁22	-2375
▁X	-2376
▁demek	-2377
lerce	-2378
AP	-2379
▁meydana	-2380
IM	-2381
▁Aş	-2382
▁Tel	-2383
▁güvenlik	-2384
▁Fr	-2385
▁tamamen	-2386
adolu	-2387
▁it	-2388
▁rapor	-2389
▁sig	-2390
▁part	-2391
meleri	-2392
▁Çalış	-2393
▁Han	-2394
▁derece	-2395
▁50	-2396
resi	-2397
▁kalan	-2398
▁Res	-2399
▁Ger	-2400
▁Mustafa	-2401
uya	-2402
://	-2403
▁koşul	-2404
eci	-2405
▁23	-2406
otor	-2407
▁hukuk	-2408
üncü	-2409
ımızda	-2410
▁Millet	-2411
▁kişiler	-2412
▁baz	-2413
ern	-2414
▁kamu	-2415
ağa	-2416
imleri	-2417
adem	-2418
▁polis	-2419
▁form	-2420
▁Sev	-2421
ayacak	-2422
▁bab	-2423
▁şah	-2424
▁1.	-2425
▁person	-2426
ımızı	-2427
▁ekonomik	-2428
▁Tab	-2429
▁Milli	-2430
▁emek	-2431
▁sonrası	-2432
liğini	-2433
▁insanlar	-2434
lenme	-2435
▁mobil	-2436
▁ekran	-2437
▁yapılacak	-2438
forman	-2439
▁Ch	-2440
▁vüc	-2441
blem	-2442
tiğimiz	-2443
ova	-2444
▁çift	-2445
▁sebeb	-2446
▁Büyükşehir	-2447
luğu	-2448
▁dal	-2449
veriş	-2450
iden	-2451
▁Yak	-2452
▁tip	-2453
ga	-2454
▁stratej	-2455
▁diyor	-2456
▁hastalık	-2457
osy	-2458
ansı	-2459
▁günlük	-2460
▁ele	-2461
inizde	-2462
▁geçmiş	-2463
dız	-2464
▁edilir	-2465
air	-2466
▁Bank	-2467
sı	-2468
malıdır	-2469
▁Per	-2470
▁arasındaki	-2471
▁Rusya	-2472
ht	-2473
▁Böyle	-2474
▁Sal	-2475
▁politik	-2476
DA	-2477
▁yaptır	-2478
▁Haberler	-2479
▁olun	-2480
per	-2481
▁sol	-2482
kem	-2483
▁sonucu	-2484
▁cam	-2485
ınızda	-2486
▁yaptık	-2487
eşil	-2488
▁akıl	-2489
makta	-2490
▁Bugün	-2491
sak	-2492
adde	-2493
▁ayrıca	-2494
▁itibaren	-2495
laştır	-2496
▁çünkü	-2497
izyon	-2498
neğin	-2499
go	-2500
▁Sosyal	-2501
▁Genç	-2502
unma	-2503
▁çoc	-2504
ısına	-2505
fen	-2506
▁bank	-2507
inizin	-2508
▁olmuş	-2509
▁bes	-2510
▁ciddi	-2511
yan	-2512
▁pan	-2513
▁deneyim	-2514
▁katkı	-2515
▁Kaz	-2516
ukarı	-2517
▁mis	-2518
▁Mal	-2519
▁çer	-2520
alarının	-2521
artesi	-2522
▁haline	-2523
▁varsa	-2524
lıkla	-2525
▁İslam	-2526
▁test	-2527
manı	-2528
▁yıllık	-2529
ân	-2530
▁hik	-2531
gisi	-2532
▁opsiyon	-2533
▁kart	-2534
▁Bakanı	-2535
▁servis	-2536
▁duyur	-2537
ağıt	-2538
▁don	-2539
▁kural	-2540
▁vermek	-2541
▁ann	-2542
osta	-2543
▁key	-2544
onik	-2545
▁nok	-2546
▁üniversit	-2547
düğü	-2548
ilerek	-2549
▁Bor	-2550
▁Nasıl	-2551
ser	-2552
▁Anadolu	-2553
▁ah	-2554
ampiyon	-2555
▁>	-2556
▁otel	-2557
▁Yani	-2558
mamız	-2559
▁Müdürlüğü	-2560
▁alıyor	-2561
▁boyut	-2562
uar	-2563
yum	-2564
▁Oyun	-2565
dağ	-2566
▁ülke	-2567
ınca	-2568
ünüz	-2569
▁bilim	-2570
▁sağlar	-2571
▁Özellikle	-2572
ılığı	-2573
▁merak	-2574
sen	-2575
▁eksik	-2576
▁aldığı	-2577
▁Sel	-2578
▁Az	-2579
▁Kür	-2580
▁Cumhurbaşkanı	-2581
lenmesi	-2582
▁bulunmaktadır	-2583
emez	-2584
dak	-2585
▁Ağ	-2586
▁başvuru	-2587
▁amacıyla	-2588
▁yapıyor	-2589
▁bulunduğu	-2590
▁fırsat	-2591
▁alınan	-2592
▁kelim	-2593
▁kaliteli	-2594
etr	-2595
▁isten	-2596
▁Proj	-2597
▁olmaz	-2598
▁Sor	-2599
▁teknoloj	-2600
▁altına	-2601
▁hizmeti	-2602
▁Mak	-2603
▁St	-2604
▁vardı	-2605
▁milyar	-2606
emal	-2607
imizde	-2608
▁Sür	-2609
▁sorum	-2610
▁bilgisayar	-2611
ersiz	-2612
▁ruh	-2613
▁the	-2614
ayi	-2615
▁ödeme	-2616
▁orta	-2617
lulu	-2618
▁başlayan	-2619
▁Mec	-2620
▁sayısı	-2621
imli	-2622
neği	-2623
▁sonrasında	-2624
ladık	-2625
şem	-2626
▁zaten	-2627
mar	-2628
▁yanlış	-2629
▁verdiği	-2630
▁trans	-2631
tör	-2632
▁problem	-2633
▁sonunda	-2634
▁tec	-2635
▁Hizmet	-2636
tul	-2637
▁örgüt	-2638
teki	-2639
▁verir	-2640
bilir	-2641
▁düzenlenen	-2642
▁basın	-2643
''	-2644
▁öğretmen	-2645
abz	-2646
▁mücadele	-2647
▁um	-2648
▁http	-2649
ebook	-2650
laka	-2651
▁Bin	-2652
ogle	-2653
lerdir	-2654
▁teklif	-2655
▁makin	-2656
▁Sen	-2657
▁Go	-2658
▁sınav	-2659
▁esn	-2660
▁yum	-2661
▁Fat	-2662
ilendir	-2663
▁Hem	-2664
alıdır	-2665
▁cil	-2666
eks	-2667
▁düzey	-2668
▁...	-2669
▁etkili	-2670
▁Bas	-2671
ıc	-2672
▁ıs	-2673
ke	-2674
▁Fakat	-2675
▁Ahmet	-2676
OL	-2677
▁neler	-2678
dığında	-2679
▁karak	-2680
unan	-2681
▁kent	-2682
▁katılım	-2683
▁oluşan	-2684
▁uyar	-2685
iddet	-2686
üyorum	-2687
ilmiştir	-2688
▁•	-2689
▁Aynı	-2690
▁memnun	-2691
▁operasyon	-2692
▁VE	-2693
▁giz	-2694
esyon	-2695
eyn	-2696
▁yeterli	-2697
▁Sat	-2698
▁mücadel	-2699
eğen	-2700
▁Ana	-2701
▁min	-2702
enler	-2703
engin	-2704
▁Kit	-2705
mayın	-2706
taki	-2707
▁28	-2708
ılıyor	-2709
madı	-2710
alarına	-2711
dük	-2712
▁reklam	-2713
eksiyon	-2714
üme	-2715
▁puan	-2716
fak	-2717
▁yolu	-2718
IL	-2719
lılık	-2720
med	-2721
▁zorunda	-2722
enüz	-2723
▁avantaj	-2724
▁ifad	-2725
▁Bursa	-2726
▁ilaç	-2727
▁silah	-2728
▁okuy	-2729
▁başına	-2730
imler	-2731
▁Cumhuriyet	-2732
▁performan	-2733
▁dünyanın	-2734
▁kaf	-2735
▁aslında	-2736
▁yerde	-2737
▁Sar	-2738
▁ted	-2739
▁gar	-2740
▁3.	-2741
▁günde	-2742
eceğiz	-2743
▁hoş	-2744
▁Beş	-2745
▁yapar	-2746
▁insanların	-2747
▁Od	-2748
▁for	-2749
▁kayn	-2750
▁gerçekten	-2751
▁Açık	-2752
▁kredi	-2753
esyonel	-2754
▁artış	-2755
AH	-2756
çev	-2757
▁beni	-2758
ros	-2759
tern	-2760
ayısıyla	-2761
▁laz	-2762
▁başlan	-2763
▁Diğer	-2764
▁doğrul	-2765
▁Frans	-2766
abilmek	-2767
▁tedavi	-2768
▁27	-2769
▁stan	-2770
inç	-2771
▁yoktur	-2772
▁video	-2773
▁dört	-2774
acebook	-2775
ımızın	-2776
alığ	-2777
▁yabancı	-2778
▁bulunuyor	-2779
▁kampan	-2780
UM	-2781
▁yana	-2782
mıyor	-2783
siye	-2784
▁malzem	-2785
▁Kam	-2786
▁vaz	-2787
▁fakat	-2788
▁ona	-2789
▁Müdürü	-2790
ha	-2791
▁Demir	-2792
▁dönemde	-2793
▁sunul	-2794
▁durumu	-2795
etik	-2796
▁etkinlik	-2797
▁gol	-2798
▁hayvan	-2799
▁edilmesi	-2800
▁bahs	-2801
▁değişiklik	-2802
gesi	-2803
▁kendini	-2804
▁Samsun	-2805
asyonu	-2806
▁Yüksek	-2807
▁?	-2808
▁tanıt	-2809
▁öldür	-2810
▁normal	-2811
ata	-2812
▁yaşanan	-2813
▁yaşayan	-2814
▁gece	-2815
▁kum	-2816
seniz	-2817
▁sonuc	-2818
20	-2819
▁hatta	-2820
kili	-2821
▁etmiş	-2822
▁escort	-2823
ST	-2824
▁fak	-2825
▁gru	-2826
▁sizi	-2827
spor	-2828
▁Bet	-2829
ipar	-2830
▁sayıda	-2831
âr	-2832
ou	-2833
▁dost	-2834
▁Kö	-2835
üslüm	-2836
ınt	-2837
▁nerede	-2838
▁doktor	-2839
aşa	-2840
rac	-2841
▁tarz	-2842
işi	-2843
▁içerik	-2844
▁ayar	-2845
▁Ap	-2846
adım	-2847
lenmiş	-2848
▁Yönetim	-2849
▁Diy	-2850
niyet	-2851
▁onay	-2852
mıştı	-2853
ildiğ	-2854
▁ayında	-2855
▁birey	-2856
▁ettik	-2857
larınızı	-2858
ton	-2859
üper	-2860
Türk	-2861
▁Suriye	-2862
▁''	-2863
▁26	-2864
▁Dur	-2865
fi	-2866
har	-2867
▁buna	-2868
▁dile	-2869
yas	-2870
sim	-2871
▁uc	-2872
▁yem	-2873
▁deniz	-2874
▁bağım	-2875
▁araya	-2876
ebilecek	-2877
üph	-2878
▁Kim	-2879
▁ölüm	-2880
ısının	-2881
atürk	-2882
▁re	-2883
▁kamer	-2884
▁firmalar	-2885
▁ilan	-2886
▁sefer	-2887
▁Şimdi	-2888
▁Am	-2889
▁siteleri	-2890
▁ediyorum	-2891
▁güvenilir	-2892
lâ	-2893
▁bayan	-2894
geç	-2895
▁ir	-2896
▁Part	-2897
▁öyle	-2898
▁Güncelleme	-2899
▁olmadığını	-2900
ia	-2901
▁do	-2902
oda	-2903
▁yaparak	-2904
ildiği	-2905
▁Kültür	-2906
ete	-2907
▁finans	-2908
▁belirten	-2909
▁analiz	-2910
▁Kol	-2911
ören	-2912
▁girişim	-2913
larca	-2914
▁İngiliz	-2915
▁alım	-2916
50	-2917
▁yazar	-2918
▁kıl	-2919
gen	-2920
▁karakter	-2921
wit	-2922
▁yere	-2923
amam	-2924
▁ayak	-2925
▁görmek	-2926
▁ödül	-2927
▁pr	-2928
▁yatırımcı	-2929
lığını	-2930
mamış	-2931
▁Seç	-2932
▁durumunda	-2933
▁Med	-2934
▁yararlan	-2935
▁Sin	-2936
ijital	-2937
▁ic	-2938
▁kullanarak	-2939
ediy	-2940
▁görünt	-2941
▁Hakk	-2942
▁devr	-2943
**	-2944
acağına	-2945
▁yılı	-2946
vekili	-2947
▁gerekmektedir	-2948
▁sizlere	-2949
▁görüntü	-2950
▁Gö	-2951
▁Dol	-2952
yı	-2953
abilm	-2954
▁mutlu	-2955
lisi	-2956
▁&	-2957
▁tesis	-2958
bakan	-2959
▁Ülk	-2960
dit	-2961
▁aşam	-2962
▁uygulama	-2963
▁Bağ	-2964
▁müda	-2965
▁Hastan	-2966
mamak	-2967
▁başarı	-2968
izik	-2969
umsuz	-2970
▁Yer	-2971
▁40	-2972
▁Lis	-2973
par	-2974
dro	-2975
▁resmi	-2976
▁Br	-2977
▁alanında	-2978
ikayet	-2979
▁Bitcoin	-2980
▁zam	-2981
▁gerektiğini	-2982
▁uçak	-2983
▁kararı	-2984
▁müşteri	-2985
▁derec	-2986
tığını	-2987
ülü	-2988
muştur	-2989
▁+	-2990
▁zorun	-2991
▁beş	-2992
▁kuş	-2993
▁29	-2994
▁Trabz	-2995
▁Yönet	-2996
lanması	-2997
▁Can	-2998
masında	-2999
▁alanda	-3000
▁elektrik	-3001
▁yandan	-3002
▁götür	-3003
çak	-3004
▁önceki	-3005
acağınız	-3006
▁personel	-3007
▁Lig	-3008
▁rol	-3009
yen	-3010
ediğini	-3011
▁yapılması	-3012
▁casino	-3013
.)	-3014
▁önünde	-3015
▁sağlıklı	-3016
kar	-3017
▁taşım	-3018
▁nokta	-3019
▁arada	-3020
▁Sistem	-3021
▁Kız	-3022
uzur	-3023
▁Kend	-3024
▁uluslararası	-3025
rek	-3026
iir	-3027
▁hayal	-3028
▁Önc	-3029
IK	-3030
dart	-3031
▁Film	-3032
▁mutlaka	-3033
▁eğlen	-3034
▁tarif	-3035
elerden	-3036
ina	-3037
▁İyi	-3038
▁olmadığı	-3039
▁beri	-3040
▁online	-3041
gar	-3042
▁sp	-3043
▁başında	-3044
▁Çev	-3045
istik	-3046
▁söyley	-3047
▁pop	-3048
astik	-3049
▁asker	-3050
▁buluş	-3051
▁Tan	-3052
▁Fiyat	-3053
ona	-3054
▁çerçev	-3055
▁düşünc	-3056
▁Almanya	-3057
▁okum	-3058
▁söylem	-3059
▁eser	-3060
▁motor	-3061
▁basit	-3062
▁istiyorum	-3063
tere	-3064
▁Atatürk	-3065
uzey	-3066
işleri	-3067
duğunu	-3068
▁şiddet	-3069
▁dam	-3070
▁altın	-3071
▁dakik	-3072
▁siyasi	-3073
▁arz	-3074
lev	-3075
▁çarp	-3076
▁sağlayan	-3077
▁toprak	-3078
▁enerji	-3079
▁mar	-3080
▁kanal	-3081
▁fikir	-3082
edeki	-3083
▁mük	-3084
▁ayır	-3085
yıl	-3086
▁Taş	-3087
lerinizi	-3088
▁Aydın	-3089
▁Mod	-3090
▁Say	-3091
▁eğit	-3092
▁sene	-3093
▁zengin	-3094
▁ilgi	-3095
▁benzer	-3096
▁Google	-3097
▁vurgul	-3098
▁alışveriş	-3099
▁kazanç	-3100
larım	-3101
ation	-3102
rüb	-3103
▁çocuğ	-3104
mada	-3105
LE	-3106
▁toplant	-3107
ümüzde	-3108
▁Düz	-3109
▁bizi	-3110
▁Burada	-3111
▁site	-3112
uvvet	-3113
▁fon	-3114
▁Gül	-3115
▁işç	-3116
▁taşın	-3117
▁henüz	-3118
▁sahiptir	-3119
▁Pazar	-3120
▁azal	-3121
▁fır	-3122
",	-3123
▁gay	-3124
arkı	-3125
▁adlı	-3126
▁döv	-3127
▁haft	-3128
▁genellikle	-3129
gili	-3130
ink	-3131
▁sayılı	-3132
▁veriyor	-3133
▁dosy	-3134
▁arttır	-3135
▁merkezi	-3136
▁bal	-3137
sızlık	-3138
▁sem	-3139
▁alacak	-3140
▁Sayfa	-3141
▁Program	-3142
▁Tes	-3143
▁açıklamada	-3144
▁kişisel	-3145
▁alır	-3146
imin	-3147
▁ateş	-3148
alatasar	-3149
▁çevir	-3150
▁hala	-3151
mızı	-3152
▁AL	-3153
▁özgür	-3154
▁keş	-3155
▁nes	-3156
▁lider	-3157
▁Op	-3158
▁Sanat	-3159
alatasaray	-3160
▁nef	-3161
▁eğer	-3162
enerbah	-3163
▁Türkçe	-3164
▁Göz	-3165
ılacak	-3166
▁harc	-3167
▁Tarihi	-3168
▁soğ	-3169
▁İnternet	-3170
▁yapılır	-3171
▁ihtiyac	-3172
▁Ham	-3173
▁dök	-3174
▁doldur	-3175
acağım	-3176
asi	-3177
OS	-3178
▁DE	-3179
lenir	-3180
▁edeceğ	-3181
▁borç	-3182
üya	-3183
▁ceza	-3184
▁Dav	-3185
▁İçin	-3186
ayla	-3187
▁eylem	-3188
▁Mahall	-3189
AC	-3190
adır	-3191
▁değerli	-3192
▁bilgileri	-3193
▁yans	-3194
▁yanıt	-3195
▁kazandır	-3196
▁bilet	-3197
▁gösteren	-3198
▁başta	-3199
▁Kı	-3200
▁konum	-3201
ord	-3202
▁müzik	-3203
▁taşıy	-3204
▁(1	-3205
larımızın	-3206
▁Gök	-3207
lanır	-3208
▁çalışmaları	-3209
▁odak	-3210
▁idar	-3211
▁ediyoruz	-3212
▁hayatını	-3213
▁çab	-3214
▁tavsiye	-3215
▁numar	-3216
ipariş	-3217
▁kaydet	-3218
▁aracı	-3219
▁tahmin	-3220
gör	-3221
asayfa	-3222
iydi	-3223
▁Kemal	-3224
▁Birliği	-3225
▁yapmış	-3226
hend	-3227
▁taleb	-3228
ilmektedir	-3229
altı	-3230
ledi	-3231
rem	-3232
▁belki	-3233
▁kims	-3234
▁çoğu	-3235
▁Kurul	-3236
▁Tay	-3237
sas	-3238
▁kurtar	-3239
ala	-3240
▁Ac	-3241
ipto	-3242
bay	-3243
İŞ	-3244
bur	-3245
▁Antalya	-3246
aşır	-3247
▁tehlik	-3248
witter	-3249
▁mec	-3250
unları	-3251
▁arası	-3252
▁lazım	-3253
▁oğ	-3254
▁öğrenciler	-3255
▁üye	-3256
gr	-3257
tiler	-3258
best	-3259
▁Val	-3260
▁beyaz	-3261
▁Yayın	-3262
ısıt	-3263
rail	-3264
yap	-3265
▁ileri	-3266
liye	-3267
▁ünlü	-3268
▁mekan	-3269
▁Sak	-3270
uyoruz	-3271
ilebilir	-3272
ullah	-3273
▁dağ	-3274
▁Koca	-3275
....	-3276
üyle	-3277
▁and	-3278
▁dışı	-3279
▁saldırı	-3280
▁olumsuz	-3281
▁yapacak	-3282
her	-3283
▁Uygul	-3284
gam	-3285
▁çal	-3286
▁kalk	-3287
OK	-3288
▁cep	-3289
tadan	-3290
▁Bazı	-3291
▁Sah	-3292
▁olabil	-3293
▁Düny	-3294
▁Dön	-3295
▁İran	-3296
esiz	-3297
▁öğ	-3298
▁içine	-3299
▁çat	-3300
▁şans	-3301
▁Şirket	-3302
▁enf	-3303
▁içi	-3304
▁kayde	-3305
▁profesyonel	-3306
▁kendisine	-3307
▁def	-3308
▁Üy	-3309
▁tutuk	-3310
uro	-3311
▁Müslüm	-3312
▁fiyatları	-3313
▁şeyler	-3314
▁Ekonom	-3315
eliğ	-3316
dıktan	-3317
▁halde	-3318
iktaş	-3319
▁Dış	-3320
inal	-3321
kenin	-3322
dal	-3323
nam	-3324
▁Haf	-3325
dam	-3326
▁Anasayfa	-3327
▁Alan	-3328
lığın	-3329
▁heyec	-3330
liyor	-3331
▁belirli	-3332
▁Araştır	-3333
▁paket	-3334
▁Kıs	-3335
▁fazl	-3336
▁alarak	-3337
üyoruz	-3338
▁Ürün	-3339
▁aylık	-3340
▁eleştir	-3341
▁Bilg	-3342
ivil	-3343
▁pozisyon	-3344
▁dek	-3345
▁bi	-3346
▁Amerika	-3347
▁:)	-3348
▁Ken	-3349
▁derin	-3350
▁şeyi	-3351
eyle	-3352
▁Cev	-3353
tak	-3354
▁kür	-3355
▁Ticaret	-3356
▁Kah	-3357
▁Gön	-3358
ess	-3359
layın	-3360
▁not	-3361
▁bebek	-3362
▁Halk	-3363
terek	-3364
▁sırada	-3365
▁Osmanlı	-3366
emmel	-3367
▁kurtul	-3368
▁şüph	-3369
▁ürünleri	-3370
ısınız	-3371
▁Cam	-3372
▁tecrüb	-3373
ulması	-3374
▁Bahis	-3375
▁Mark	-3376
▁gören	-3377
▁yavaş	-3378
cılık	-3379
ütfen	-3380
enerbahçe	-3381
▁anlamda	-3382
▁Müz	-3383
IZ	-3384
▁aile	-3385
say	-3386
▁31	-3387
▁izley	-3388
ork	-3389
▁ikti	-3390
▁yayım	-3391
▁Fak	-3392
▁proje	-3393
▁önemlidir	-3394
▁faiz	-3395
rin	-3396
▁diş	-3397
esindeki	-3398
▁kesinlikle	-3399
▁Bunu	-3400
▁bed	-3401
▁kategor	-3402
▁temsilc	-3403
▁işe	-3404
▁lim	-3405
▁güvenli	-3406
▁esas	-3407
-3	-3408
▁öne	-3409
ard	-3410
▁huzur	-3411
▁Yatır	-3412
pek	-3413
iyah	-3414
▁olursa	-3415
▁Den	-3416
ılmaz	-3417
▁Fir	-3418
▁lisans	-3419
iber	-3420
▁maliyet	-3421
hi	-3422
▁ederim	-3423
▁‘	-3424
▁imkan	-3425
▁gide	-3426
ıldığı	-3427
▁emin	-3428
ılarak	-3429
dikleri	-3430
▁akşam	-3431
içek	-3432
▁Gazi	-3433
▁Bal	-3434
▁The	-3435
▁yolc	-3436
mür	-3437
▁arama	-3438
▁Eş	-3439
ahim	-3440
▁açıklama	-3441
▁po	-3442
▁yıldır	-3443
▁yaşındaki	-3444
▁Etik	-3445
▁bonus	-3446
▁Mas	-3447
son	-3448
▁Üst	-3449
▁sabah	-3450
▁Facebook	-3451
▁performans	-3452
▁iptal	-3453
are	-3454
▁soy	-3455
▁yalnızca	-3456
▁önüne	-3457
▁yeri	-3458
▁defa	-3459
▁kavram	-3460
▁mesaf	-3461
▁takdir	-3462
onav	-3463
diler	-3464
▁Derneği	-3465
▁OL	-3466
▁olma	-3467
▁dolu	-3468
▁Galatasaray	-3469
▁eg	-3470
▁işi	-3471
▁aray	-3472
tarı	-3473
▁hikay	-3474
▁Yüz	-3475
▁hayata	-3476
diğimiz	-3477
üny	-3478
▁düğ	-3479
Bir	-3480
EY	-3481
▁tatil	-3482
alam	-3483
tion	-3484
▁belirtti	-3485
uyorum	-3486
layarak	-3487
yse	-3488
▁Çar	-3489
▁ödem	-3490
abileceğiniz	-3491
ham	-3492
▁Var	-3493
▁Yol	-3494
▁birisi	-3495
evizyon	-3496
ise	-3497
lığına	-3498
▁gal	-3499
ple	-3500
▁etmektedir	-3501
▁Mur	-3502
▁sürede	-3503
▁yönetic	-3504
▁Web	-3505
▁yazılım	-3506
▁taz	-3507
ağan	-3508
▁kop	-3509
▁bat	-3510
--	-3511
sur	-3512
▁aktif	-3513
▁döneminde	-3514
▁yapıldı	-3515
▁sur	-3516
▁TV	-3517
KK	-3518
▁Örneğin	-3519
▁tutar	-3520
▁prot	-3521
▁Peki	-3522
▁fiyatı	-3523
liğinde	-3524
▁davet	-3525
EC	-3526
▁sek	-3527
▁kullandı	-3528
▁dünyada	-3529
▁Re	-3530
▁onları	-3531
▁güc	-3532
tepe	-3533
▁Sadece	-3534
idi	-3535
raman	-3536
▁sonraki	-3537
▁yerinde	-3538
▁AR	-3539
oker	-3540
ene	-3541
elt	-3542
▁hafif	-3543
ron	-3544
▁yukarı	-3545
▁kampany	-3546
▁Un	-3547
▁yerleş	-3548
▁Bat	-3549
▁fil	-3550
▁Şah	-3551
oman	-3552
ku	-3553
erv	-3554
▁HD	-3555
elerinden	-3556
erken	-3557
▁alanı	-3558
dıkları	-3559
▁transfer	-3560
maması	-3561
sini	-3562
▁sel	-3563
lanıyor	-3564
eng	-3565
laması	-3566
▁sıkıntı	-3567
▁bitir	-3568
▁onların	-3569
▁İngiltere	-3570
▁düşür	-3571
afir	-3572
▁ucuz	-3573
iyim	-3574
▁beğen	-3575
▁sona	-3576
amay	-3577
▁Dak	-3578
▁toplantı	-3579
liğe	-3580
iklet	-3581
▁Savaş	-3582
▁istediğiniz	-3583
▁karşısında	-3584
allah	-3585
lığa	-3586
▁del	-3587
▁AN	-3588
▁Şu	-3589
▁hâ	-3590
▁Beşiktaş	-3591
▁süt	-3592
▁Teknik	-3593
mişti	-3594
▁psik	-3595
ternatif	-3596
▁Sp	-3597
▁İlçe	-3598
ekim	-3599
▁No	-3600
racat	-3601
▁ettir	-3602
▁Yet	-3603
▁açıkladı	-3604
▁değişim	-3605
▁otomobil	-3606
âh	-3607
▁bol	-3608
▁düzenlem	-3609
US	-3610
▁to	-3611
ultan	-3612
An	-3613
meli	-3614
▁Bayram	-3615
▁yıllarda	-3616
▁sonucunda	-3617
▁oranı	-3618
▁yaygın	-3619
▁yiy	-3620
sine	-3621
▁tabi	-3622
▁azalt	-3623
▁AKP	-3624
▁Buna	-3625
etleri	-3626
▁standart	-3627
▁te	-3628
▁Vak	-3629
ze	-3630
brıs	-3631
▁mat	-3632
▁gaz	-3633
▁demokr	-3634
ger	-3635
medi	-3636
▁Yan	-3637
liler	-3638
▁yerel	-3639
elerle	-3640
▁aldığ	-3641
▁danış	-3642
ıyorlar	-3643
daş	-3644
▁akl	-3645
andır	-3646
▁Gerçek	-3647
▁günlerde	-3648
▁madd	-3649
lediği	-3650
▁işlemi	-3651
larımızı	-3652
▁ef	-3653
▁başlık	-3654
▁·	-3655
acılık	-3656
çiler	-3657
▁oyunu	-3658
▁seçen	-3659
▁Fenerbahçe	-3660
ai	-3661
▁önlem	-3662
alığı	-3663
▁hüc	-3664
▁lira	-3665
▁iddia	-3666
▁eriş	-3667
stagram	-3668
▁edilmiş	-3669
▁korun	-3670
▁kok	-3671
▁Yardımcısı	-3672
▁kaldı	-3673
▁vb	-3674
▁belirterek	-3675
▁edebilirsiniz	-3676
sizlik	-3677
▁olmadan	-3678
our	-3679
▁kişilerin	-3680
▁us	-3681
▁Mobil	-3682
▁olumlu	-3683
▁mesel	-3684
▁hisset	-3685
ısız	-3686
▁piş	-3687
▁Fil	-3688
▁ara	-3689
hone	-3690
▁Giriş	-3691
▁Fatih	-3692
▁Başbakan	-3693
icari	-3694
▁şif	-3695
▁Serv	-3696
AV	-3697
▁öden	-3698
gıç	-3699
▁etme	-3700
▁yasak	-3701
▁hizmetleri	-3702
▁hap	-3703
ilim	-3704
▁otomatik	-3705
iyer	-3706
▁sokak	-3707
▁yoksa	-3708
▁lez	-3709
ılıç	-3710
sat	-3711
?"	-3712
▁ton	-3713
▁Uluslararası	-3714
▁Hol	-3715
▁alma	-3716
▁hayır	-3717
gal	-3718
▁60	-3719
edeni	-3720
▁temin	-3721
▁Mahallesi	-3722
ESİ	-3723
▁nüf	-3724
▁gül	-3725
▁konut	-3726
▁ülkemiz	-3727
posta	-3728
▁güneş	-3729
alim	-3730
▁Mev	-3731
▁olmuştur	-3732
▁anlamına	-3733
▁sorunu	-3734
▁bilinen	-3735
▁akıllı	-3736
▁karşılık	-3737
hendis	-3738
▁fizik	-3739
Lİ	-3740
▁Yılmaz	-3741
▁popüler	-3742
▁sert	-3743
▁vakit	-3744
▁varlık	-3745
▁gerektir	-3746
▁karış	-3747
▁erken	-3748
▁Ark	-3749
▁forex	-3750
▁vazgeç	-3751
▁savun	-3752
▁evde	-3753
▁Ma	-3754
▁doğrudan	-3755
ows	-3756
utan	-3757
▁bundan	-3758
▁yerleştir	-3759
▁gündem	-3760
mayacak	-3761
bette	-3762
▁işlemleri	-3763
▁Ber	-3764
▁duygu	-3765
ayıf	-3766
▁day	-3767
▁Sab	-3768
▁davranış	-3769
▁Escort	-3770
▁kem	-3771
imar	-3772
▁Met	-3773
tuk	-3774
▁kadro	-3775
▁ürünler	-3776
atur	-3777
ban	-3778
ersin	-3779
▁oku	-3780
liğin	-3781
▁olmasına	-3782
▁kapı	-3783
▁çıkış	-3784
ezi	-3785
eygam	-3786
▁şikayet	-3787
▁kendine	-3788
▁birik	-3789
▁meş	-3790
▁özellikleri	-3791
▁anne	-3792
▁Rec	-3793
▁Kiş	-3794
öyl	-3795
▁İsrail	-3796
his	-3797
▁yetiş	-3798
AĞ	-3799
▁çap	-3800
▁şar	-3801
▁Uzun	-3802
▁çeken	-3803
▁yetiştir	-3804
ündeki	-3805
▁yasal	-3806
▁Kurum	-3807
▁veri	-3808
▁Yatırım	-3809
ısır	-3810
▁ilçesinde	-3811
▁yada	-3812
ediğiniz	-3813
▁tedbir	-3814
▁bunlar	-3815
▁birim	-3816
▁özelliği	-3817
ediler	-3818
▁Kab	-3819
▁uçuş	-3820
erseniz	-3821
▁Kıbrıs	-3822
▁olanak	-3823
rika	-3824
undaki	-3825
▁du	-3826
▁yılda	-3827
üstü	-3828
▁Amerik	-3829
▁pas	-3830
cılar	-3831
▁asıl	-3832
tis	-3833
▁Böylece	-3834
▁almış	-3835
zet	-3836
mur	-3837
▁geçerli	-3838
IŞ	-3839
diğiniz	-3840
▁keyif	-3841
isiniz	-3842
liğine	-3843
▁Mut	-3844
▁Güney	-3845
▁hakkı	-3846
likleri	-3847
▁Dakika	-3848
eceğine	-3849
▁af	-3850
▁fel	-3851
▁yapmaya	-3852
.,	-3853
▁Doğu	-3854
adi	-3855
▁Yunan	-3856
YA	-3857
▁başlar	-3858
droid	-3859
qu	-3860
▁Q	-3861
▁verilm	-3862
nden	-3863
▁seyahat	-3864
OM	-3865
▁Cuma	-3866
tic	-3867
▁ış	-3868
▁İşlem	-3869
▁Güzel	-3870
ema	-3871
▁imk	-3872
▁kans	-3873
alardan	-3874
▁başk	-3875
err	-3876
▁dahi	-3877
▁yetkil	-3878
▁etmeye	-3879
izasyon	-3880
▁insanın	-3881
ses	-3882
eğini	-3883
▁İki	-3884
▁diren	-3885
ebiliriz	-3886
▁Pr	-3887
▁iyil	-3888
▁ap	-3889
ıza	-3890
ıf	-3891
estor	-3892
▁Sh	-3893
isinden	-3894
▁ışık	-3895
▁balık	-3896
▁https	-3897
▁doğum	-3898
▁kullanımı	-3899
▁hisse	-3900
alandı	-3901
▁sonu	-3902
▁büt	-3903
ndan	-3904
▁öncesi	-3905
▁Nur	-3906
mail	-3907
▁programı	-3908
mos	-3909
▁İm	-3910
▁hus	-3911
diğinde	-3912
eygamber	-3913
▁sap	-3914
▁aşağıdaki	-3915
ırım	-3916
▁tas	-3917
düm	-3918
▁Gür	-3919
▁Bankası	-3920
▁)	-3921
▁mükemmel	-3922
onya	-3923
ışma	-3924
çuk	-3925
▁hac	-3926
estiv	-3927
▁Şeh	-3928
▁istih	-3929
TC	-3930
dikten	-3931
▁dijital	-3932
emen	-3933
unuzu	-3934
▁aydın	-3935
▁süreci	-3936
▁Küçük	-3937
▁eşy	-3938
▁kaş	-3939
▁mağaz	-3940
deniz	-3941
▁nedeni	-3942
▁sipariş	-3943
▁lir	-3944
▁belediye	-3945
▁süresi	-3946
▁la	-3947
iyorlar	-3948
lerimizi	-3949
▁üçüncü	-3950
eyiz	-3951
▁Altın	-3952
kr	-3953
▁ülkenin	-3954
leşme	-3955
▁Yine	-3956
▁oyunc	-3957
fet	-3958
and	-3959
onavirüs	-3960
▁vit	-3961
▁araştırma	-3962
▁soruştur	-3963
▁asla	-3964
▁Kürt	-3965
▁serbest	-3966
▁okun	-3967
▁ölçü	-3968
ınızın	-3969
▁km	-3970
▁Fin	-3971
▁olduğuna	-3972
▁Tam	-3973
▁kod	-3974
▁Dil	-3975
ond	-3976
▁Para	-3977
▁müdür	-3978
▁harika	-3979
▁verildi	-3980
▁katıldı	-3981
▁incelem	-3982
▁kimse	-3983
▁yazılı	-3984
▁giden	-3985
ie	-3986
▁Adana	-3987
▁biçimde	-3988
ılabilir	-3989
▁getiren	-3990
▁rakam	-3991
▁imza	-3992
indows	-3993
▁Paz	-3994
▁kı	-3995
▁İk	-3996
▁Müslüman	-3997
▁Orta	-3998
▁işbir	-3999
▁meslek	-4000
▁Do	-4001
Al	-4002
ılığıyla	-4003
▁pay	-4004
madığı	-4005
▁Dest	-4006
▁Eski	-4007
▁içeren	-4008
▁sermay	-4009
sit	-4010
▁sıf	-4011
▁birinci	-4012
▁BİR	-4013
▁yapabilirsiniz	-4014
▁Sayın	-4015
▁alıp	-4016
▁ikili	-4017
▁bunları	-4018
▁koruy	-4019
usunu	-4020
▁Çek	-4021
ube	-4022
uldu	-4023
▁onlar	-4024
▁etkisi	-4025
▁Sav	-4026
▁yönetimi	-4027
eğe	-4028
▁Gerek	-4029
▁Saat	-4030
▁karıştır	-4031
▁(2	-4032
zer	-4033
▁cen	-4034
▁ide	-4035
▁eşit	-4036
▁Erk	-4037
▁Sey	-4038
▁Zaman	-4039
ayıp	-4040
▁ekib	-4041
ümüş	-4042
dev	-4043
▁deney	-4044
▁şehit	-4045
12	-4046
▁nitelik	-4047
asit	-4048
▁oyunları	-4049
ain	-4050
▁500	-4051
▁öğrenci	-4052
Türkiye	-4053
urken	-4054
www	-4055
isiyle	-4056
▁Dir	-4057
▁hatırlat	-4058
▁iP	-4059
▁Yazı	-4060
▁Düş	-4061
▁kilo	-4062
evk	-4063
▁izle	-4064
▁Süper	-4065
▁Karş	-4066
▁bazen	-4067
ılmıştır	-4068
urum	-4069
▁Tah	-4070
▁ortadan	-4071
▁alternatif	-4072
▁amel	-4073
emiş	-4074
▁mon	-4075
▁ortalama	-4076
▁marka	-4077
▁detaylı	-4078
arlar	-4079
▁Twitter	-4080
▁teknoloji	-4081
▁Tat	-4082
▁desteği	-4083
abilen	-4084
▁yaparken	-4085
▁çocuklar	-4086
uru	-4087
asın	-4088
▁mo	-4089
lanma	-4090
ary	-4091
▁sorumlu	-4092
bon	-4093
▁Okul	-4094
▁Ef	-4095
abileceği	-4096
▁kendisini	-4097
▁Bizim	-4098
▁tören	-4099
▁askeri	-4100
▁Murat	-4101
▁aşırı	-4102
▁durdur	-4103
▁kullanmak	-4104
ediğimiz	-4105
▁bunların	-4106
leyici	-4107
▁Fakült	-4108
▁4.	-4109
▁Hayat	-4110
▁Şehir	-4111
▁Kitap	-4112
▁etmesi	-4113
▁olmasını	-4114
hane	-4115
▁bec	-4116
eceğim	-4117
rum	-4118
edikleri	-4119
▁bilm	-4120
alle	-4121
▁doğrult	-4122
▁Hep	-4123
etrol	-4124
▁Is	-4125
▁Canlı	-4126
▁altı	-4127
▁kış	-4128
EB	-4129
▁inşa	-4130
ımın	-4131
▁işte	-4132
bin	-4133
▁şampiyon	-4134
avi	-4135
ock	-4136
ly	-4137
▁olmaktadır	-4138
▁aracılığıyla	-4139
macı	-4140
gü	-4141
▁haberleri	-4142
▁Ed	-4143
LARI	-4144
cret	-4145
▁unsur	-4146
EV	-4147
▁ez	-4148
▁gönül	-4149
ülebilir	-4150
▁Otel	-4151
ates	-4152
▁peş	-4153
abrik	-4154
leriniz	-4155
ındır	-4156
▁yola	-4157
▁sivil	-4158
▁yakal	-4159
▁diyerek	-4160
kiler	-4161
▁firma	-4162
ây	-4163
▁kendisi	-4164
▁Cez	-4165
ASI	-4166
▁İlet	-4167
hale	-4168
▁erişim	-4169
▁çıkıyor	-4170
tel	-4171
▁Boy	-4172
▁Hüs	-4173
▁tane	-4174
leyin	-4175
▁Güvenlik	-4176
▁hazırlık	-4177
▁çay	-4178
▁giren	-4179
▁civ	-4180
▁büny	-4181
▁Benim	-4182
▁üzerindeki	-4183
▁uygulaması	-4184
EO	-4185
▁Dair	-4186
▁Nedir	-4187
▁baskı	-4188
▁Köy	-4189
▁anlayış	-4190
amet	-4191
▁alg	-4192
.'	-4193
▁geçti	-4194
▁parti	-4195
▁GÜN	-4196
▁bağlantı	-4197
▁ihtim	-4198
uzu	-4199
memiş	-4200
▁Irak	-4201
▁Tasar	-4202
LERİ	-4203
lot	-4204
▁Mic	-4205
▁Yazar	-4206
▁Fransa	-4207
▁orada	-4208
▁Mad	-4209
▁bl	-4210
ınar	-4211
▁modern	-4212
anet	-4213
dat	-4214
▁ayı	-4215
eyecek	-4216
▁üyesi	-4217
▁tutul	-4218
zu	-4219
▁dönüştür	-4220
▁almaktadır	-4221
▁aşk	-4222
▁kapalı	-4223
▁Arap	-4224
mesinin	-4225
▁kuvvet	-4226
ner	-4227
▁dağıt	-4228
▁ediliyor	-4229
▁…	-4230
liliğ	-4231
▁cilt	-4232
▁onlara	-4233
ümüzdeki	-4234
▁yapabilir	-4235
süz	-4236
▁gr	-4237
▁döviz	-4238
▁kalp	-4239
▁düzenlen	-4240
▁Malat	-4241
▁Meclis	-4242
▁rez	-4243
▁isimli	-4244
0'	-4245
MA	-4246
diğim	-4247
▁Gazetesi	-4248
▁kullanılır	-4249
▁alındı	-4250
aka	-4251
ukat	-4252
▁kayıp	-4253
larımıza	-4254
we	-4255
▁Odası	-4256
▁milli	-4257
▁Sohbet	-4258
▁çalışıyor	-4259
▁Milletvekili	-4260
▁reh	-4261
▁doğrultusunda	-4262
ese	-4263
çesi	-4264
Ben	-4265
layıp	-4266
meni	-4267
▁Hz	-4268
▁Sultan	-4269
ts	-4270
▁ib	-4271
dırım	-4272
ığın	-4273
▁Recep	-4274
▁faktör	-4275
▁Sın	-4276
▁Kılıç	-4277
▁gelişim	-4278
iciler	-4279
▁yapım	-4280
!!	-4281
İD	-4282
▁Sır	-4283
▁olmaya	-4284
arbak	-4285
▁ekipleri	-4286
oj	-4287
▁park	-4288
▁istiyorsanız	-4289
▁kitab	-4290
ity	-4291
▁Fed	-4292
DI	-4293
otel	-4294
▁cm	-4295
▁edip	-4296
▁maaş	-4297
▁yıldız	-4298
▁bet	-4299
▁$	-4300
▁x	-4301
▁yürüy	-4302
▁değeri	-4303
▁kripto	-4304
arya	-4305
▁kısmı	-4306
vik	-4307
▁faydalan	-4308
▁tepki	-4309
▁duvar	-4310
▁Yen	-4311
▁trafik	-4312
irken	-4313
brahim	-4314
▁yeter	-4315
ÜRK	-4316
alarından	-4317
▁söyleyen	-4318
▁yor	-4319
▁Ban	-4320
▁müşteriler	-4321
▁belirtilen	-4322
▁düştü	-4323
▁vergi	-4324
▁düşünüyorum	-4325
ress	-4326
▁Sig	-4327
layıcı	-4328
▁Partisi	-4329
▁Bek	-4330
▁ticari	-4331
▁suyu	-4332
▁önceden	-4333
▁kişilik	-4334
▁neredeyse	-4335
masından	-4336
abilmesi	-4337
▁açı	-4338
▁yönlendir	-4339
▁Etiketler	-4340
ahmet	-4341
▁Hava	-4342
▁olduğumuz	-4343
▁göç	-4344
usuna	-4345
▁senin	-4346
ıştı	-4347
▁Hiç	-4348
▁olmay	-4349
▁itir	-4350
amazan	-4351
cil	-4352
▁adresi	-4353
▁köş	-4354
işehir	-4355
▁yarg	-4356
ahtar	-4357
▁Çan	-4358
obüs	-4359
▁eklen	-4360
▁gur	-4361
▁şiir	-4362
arım	-4363
adeli	-4364
▁bağımsız	-4365
▁kriz	-4366
▁ta	-4367
▁hükümet	-4368
▁200	-4369
abilmektedir	-4370
düz	-4371
▁çıkart	-4372
24	-4373
▁Cem	-4374
▁eğitimi	-4375
▁Günü	-4376
▁Bütün	-4377
▁iktidar	-4378
▁Kara	-4379
▁rad	-4380
▁inşaat	-4381
MM	-4382
▁Hasan	-4383
▁tehdit	-4384
▁New	-4385
▁etraf	-4386
▁çoğ	-4387
▁yeşil	-4388
▁teb	-4389
▁ayrıl	-4390
▁Ücret	-4391
▁ihtiyacı	-4392
oca	-4393
▁ülkede	-4394
▁Müşter	-4395
/0	-4396
▁İd	-4397
▁Elektr	-4398
▁düzenli	-4399
arbakır	-4400
▁Pan	-4401
▁türk	-4402
yip	-4403
▁belirlen	-4404
▁olduğundan	-4405
iyan	-4406
Ar	-4407
▁For	-4408
▁Bon	-4409
▁getirdi	-4410
▁bilir	-4411
▁hasta	-4412
pt	-4413
▁red	-4414
▁Sanayi	-4415
▁dışarı	-4416
masıyla	-4417
▁tarım	-4418
▁zayıf	-4419
sinin	-4420
▁Başkanlığı	-4421
.”	-4422
▁zih	-4423
▁cüm	-4424
▁yılın	-4425
ÜK	-4426
iyiz	-4427
▁Artık	-4428
▁bilgilendir	-4429
▁denetim	-4430
mit	-4431
lasik	-4432
▁=	-4433
luluğ	-4434
ebiliyor	-4435
▁Çağ	-4436
dek	-4437
▁Erz	-4438
▁Le	-4439
orta	-4440
▁arab	-4441
▁Li	-4442
▁diyen	-4443
ator	-4444
▁tanın	-4445
▁heyecan	-4446
▁Str	-4447
▁İletişim	-4448
amayan	-4449
▁bağlant	-4450
▁pil	-4451
mut	-4452
▁Neden	-4453
out	-4454
▁acı	-4455
SK	-4456
▁İnş	-4457
▁resim	-4458
▁ism	-4459
▁binlerce	-4460
▁Van	-4461
▁zamanlarda	-4462
LAN	-4463
eytin	-4464
uf	-4465
ıb	-4466
▁biliyor	-4467
▁adr	-4468
▁etkilen	-4469
▁yerini	-4470
▁ihracat	-4471
▁hoc	-4472
▁kırmızı	-4473
▁lütfen	-4474
▁uyum	-4475
lal	-4476
▁herkesin	-4477
▁ters	-4478
▁bulundur	-4479
▁Sonra	-4480
demir	-4481
▁olmam	-4482
ire	-4483
iya	-4484
▁dikkate	-4485
ell	-4486
▁bakan	-4487
▁Bilgi	-4488
ane	-4489
antep	-4490
▁duyg	-4491
▁öğret	-4492
▁Emniyet	-4493
▁Kocaeli	-4494
▁dolaş	-4495
celi	-4496
▁Belediy	-4497
▁Yal	-4498
▁35	-4499
▁düşüş	-4500
▁siyaset	-4501
liyat	-4502
iyatro	-4503
iter	-4504
▁olanlar	-4505
tansiy	-4506
▁Android	-4507
▁Bilim	-4508
▁Çık	-4509
emesi	-4510
▁Yıldırım	-4511
▁dokun	-4512
▁şunları	-4513
▁sağlıyor	-4514
▁amacı	-4515
▁gelin	-4516
▁kişiye	-4517
▁seçenekleri	-4518
ilme	-4519
▁uğraş	-4520
IS	-4521
▁Piyas	-4522
▁des	-4523
şamba	-4524
▁PKK	-4525
üyada	-4526
anti	-4527
▁Sonuç	-4528
yer	-4529
▁gelenek	-4530
▁verecek	-4531
▁depr	-4532
▁çoğun	-4533
▁Yok	-4534
cilik	-4535
başı	-4536
seri	-4537
▁sim	-4538
▁kısıt	-4539
▁oda	-4540
▁Windows	-4541
lardaki	-4542
ry	-4543
▁beb	-4544
▁vücut	-4545
altına	-4546
ladım	-4547
▁görsel	-4548
▁noktada	-4549
lerim	-4550
▁Men	-4551
▁özen	-4552
▁Of	-4553
arında	-4554
▁gördüğ	-4555
▁birden	-4556
▁Hastanesi	-4557
▁Evet	-4558
▁Bunlar	-4559
▁Batı	-4560
▁grub	-4561
▁kapasit	-4562
▁aktiv	-4563
▁paylaşım	-4564
bil	-4565
gre	-4566
▁eve	-4567
asız	-4568
▁Arkadaş	-4569
▁kanun	-4570
▁Mus	-4571
▁ettiğini	-4572
udi	-4573
▁şer	-4574
oin	-4575
▁rahatsız	-4576
▁Konya	-4577
▁misafir	-4578
OĞ	-4579
mm	-4580
larındaki	-4581
fı	-4582
▁BAŞ	-4583
▁sunan	-4584
▁Telefon	-4585
lıdır	-4586
▁Pazartesi	-4587
▁yüzyıl	-4588
▁Mac	-4589
▁Gönder	-4590
▁virüs	-4591
▁sayede	-4592
HA	-4593
▁bür	-4594
za	-4595
şembe	-4596
▁tanı	-4597
▁piyasa	-4598
▁tad	-4599
▁katılan	-4600
▁sahn	-4601
oto	-4602
▁Teş	-4603
▁Sonr	-4604
▁genelinde	-4605
▁beden	-4606
▁Fakültesi	-4607
▁bölgede	-4608
▁rast	-4609
▁salon	-4610
▁haz	-4611
▁vade	-4612
UT	-4613
▁atan	-4614
▁Görün	-4615
▁ürünü	-4616
▁İbrahim	-4617
-4	-4618
ikat	-4619
▁Teknoloji	-4620
▁Tayyip	-4621
▁ifadelerini	-4622
▁bakış	-4623
lardı	-4624
ğur	-4625
uluğ	-4626
▁sigort	-4627
▁istiyoruz	-4628
▁Abd	-4629
▁Bab	-4630
▁imkanı	-4631
▁elem	-4632
▁ilgilen	-4633
▁GÖ	-4634
isa	-4635
lerimizin	-4636
▁geçiş	-4637
▁başlıyor	-4638
▁Tarım	-4639
ular	-4640
oft	-4641
rom	-4642
öğr	-4643
▁kazanmak	-4644
▁çerçevesinde	-4645
▁istik	-4646
amıyor	-4647
▁olacağını	-4648
▁sorumluluk	-4649
ump	-4650
cisi	-4651
bal	-4652
▁fi	-4653
ETÖ	-4654
haba	-4655
▁iade	-4656
▁bulunur	-4657
▁Dik	-4658
umhur	-4659
oyu	-4660
luluğu	-4661
▁yapma	-4662
▁gem	-4663
yüz	-4664
▁altyap	-4665
ekil	-4666
▁kaçır	-4667
▁giderek	-4668
▁televizyon	-4669
▁hassas	-4670
lanmıştır	-4671
▁Güneş	-4672
▁Ses	-4673
▁Birleş	-4674
▁olmalıdır	-4675
▁hakim	-4676
ori	-4677
▁dünyaya	-4678
▁yaşında	-4679
▁endiş	-4680
tuğ	-4681
▁Yapılan	-4682
▁İkinci	-4683
▁sunuyor	-4684
red	-4685
türk	-4686
▁hızla	-4687
▁istek	-4688
▁kolayca	-4689
▁Hakkında	-4690
▁durumlarda	-4691
▁alınması	-4692
▁ins	-4693
▁soğuk	-4694
▁olduğunuz	-4695
▁alak	-4696
▁etik	-4697
▁kahv	-4698
▁öncelikle	-4699
▁Herk	-4700
kol	-4701
▁Sü	-4702
▁kesim	-4703
İn	-4704
▁çiçek	-4705
OP	-4706
▁bahset	-4707
▁çalışması	-4708
▁elektronik	-4709
▁Yeşil	-4710
▁Net	-4711
▁yapılmış	-4712
ert	-4713
amik	-4714
manlık	-4715
▁bozuk	-4716
leyerek	-4717
▁Hüseyin	-4718
▁Hes	-4719
ağın	-4720
▁dolayısıyla	-4721
▁Kir	-4722
▁gösterir	-4723
nün	-4724
ayarak	-4725
▁Erkek	-4726
▁gösteriyor	-4727
▁bekliyor	-4728
▁Balık	-4729
enizi	-4730
▁ilçe	-4731
▁görülen	-4732
alarla	-4733
▁becer	-4734
11	-4735
ayım	-4736
land	-4737
▁bölge	-4738
▁ameliyat	-4739
▁Üç	-4740
▁Apple	-4741
duğumuz	-4742
▁36	-4743
▁Boz	-4744
▁öngör	-4745
bank	-4746
▁Ro	-4747
▁Kart	-4748
▁mahk	-4749
▁dizi	-4750
emli	-4751
▁kurulan	-4752
▁Hast	-4753
car	-4754
▁Pat	-4755
▁Diyarbakır	-4756
▁KAR	-4757
ledik	-4758
liğinin	-4759
▁alabilirsiniz	-4760
▁başkanı	-4761
▁sana	-4762
▁Trabzon	-4763
▁Futbol	-4764
▁bayram	-4765
▁Kuzey	-4766
ruf	-4767
▁hissed	-4768
▁saf	-4769
laşma	-4770
▁gelmiş	-4771
▁Dolayısıyla	-4772
eral	-4773
esef	-4774
▁sonuna	-4775
LU	-4776
lant	-4777
▁potansiy	-4778
30	-4779
enkul	-4780
▁hediye	-4781
OB	-4782
erim	-4783
▁tuz	-4784
▁veriler	-4785
▁İL	-4786
▁mahkem	-4787
▁Kaynak	-4788
▁insanları	-4789
ABER	-4790
▁kalın	-4791
bey	-4792
▁Kanunu	-4793
▁bö	-4794
giler	-4795
▁MHP	-4796
liyet	-4797
PS	-4798
nik	-4799
▁evet	-4800
▁kuru	-4801
▁Malatya	-4802
▁finansal	-4803
▁Mahkem	-4804
▁şirketi	-4805
▁mus	-4806
▁esnaf	-4807
▁küresel	-4808
▁Esk	-4809
istin	-4810
rop	-4811
▁parçası	-4812
▁ederken	-4813
▁kus	-4814
▁işler	-4815
▁buy	-4816
▁Otom	-4817
▁siyah	-4818
▁Akdeniz	-4819
imizden	-4820
▁üyelik	-4821
▁Şampiyon	-4822
▁oldukları	-4823
lıklar	-4824
kır	-4825
encer	-4826
▁kup	-4827
th	-4828
liliği	-4829
▁almaya	-4830
memek	-4831
▁ordu	-4832
lığının	-4833
EF	-4834
▁Cen	-4835
▁Port	-4836
▁Çelik	-4837
▁saygı	-4838
▁zevk	-4839
▁İçer	-4840
▁açılış	-4841
▁indirim	-4842
▁Yas	-4843
bo	-4844
▁geçtiğimiz	-4845
▁Mey	-4846
▁gözlem	-4847
andar	-4848
edek	-4849
tanın	-4850
▁vermiş	-4851
laj	-4852
▁US	-4853
▁adını	-4854
▁çalıştır	-4855
▁Hatta	-4856
▁gücü	-4857
▁duruş	-4858
▁futbolcu	-4859
▁gelişmeler	-4860
▁Siv	-4861
▁Mem	-4862
OT	-4863
▁makal	-4864
▁tatlı	-4865
▁şiş	-4866
▁üstün	-4867
▁boğ	-4868
şiv	-4869
maktan	-4870
▁Mon	-4871
▁bölgesinde	-4872
▁ağaç	-4873
▁kaydetti	-4874
▁çocukların	-4875
▁5.	-4876
▁kendilerine	-4877
amadı	-4878
▁Hukuk	-4879
adet	-4880
▁AT	-4881
▁teşkil	-4882
▁Destek	-4883
▁işin	-4884
manızı	-4885
▁Çarşamba	-4886
▁Gündem	-4887
▁deng	-4888
▁kolaylaş	-4889
▁filmi	-4890
▁kavuş	-4891
▁Muham	-4892
anım	-4893
▁tır	-4894
▁Fark	-4895
▁takv	-4896
oli	-4897
avuz	-4898
▁Gaziantep	-4899
▁Nak	-4900
str	-4901
▁ves	-4902
▁beklent	-4903
▁Soy	-4904
▁söylüyor	-4905
▁sebebi	-4906
▁toplumsal	-4907
▁modelleri	-4908
ave	-4909
▁br	-4910
lığında	-4911
AF	-4912
▁Sek	-4913
▁müt	-4914
▁Ömer	-4915
okul	-4916
▁sevk	-4917
▁oluşturul	-4918
▁yenil	-4919
mede	-4920
▁Cumhuriyeti	-4921
▁Kut	-4922
▁dis	-4923
▁sahib	-4924
şey	-4925
▁Aslında	-4926
▁duyar	-4927
▁teşvik	-4928
▁Euro	-4929
▁sabit	-4930
nu	-4931
▁Kanun	-4932
▁lezzet	-4933
▁yıllar	-4934
köy	-4935
▁Ramazan	-4936
▁Aj	-4937
ediğim	-4938
▁yerli	-4939
▁Mersin	-4940
▁gizli	-4941
▁gözaltına	-4942
imd	-4943
▁ref	-4944
▁Salı	-4945
▁Jap	-4946
▁çağr	-4947
▁kulak	-4948
kon	-4949
▁biridir	-4950
aşık	-4951
▁vücud	-4952
▁sakin	-4953
▁içeriğ	-4954
▁Perşembe	-4955
oya	-4956
▁ince	-4957
lasyon	-4958
▁nüfus	-4959
▁hesabı	-4960
▁taşı	-4961
YOR	-4962
kray	-4963
▁sorgul	-4964
▁uzat	-4965
▁belediy	-4966
▁anal	-4967
ever	-4968
▁kayded	-4969
▁blog	-4970
▁bom	-4971
illi	-4972
▁takdirde	-4973
▁sebebiyle	-4974
▁işlev	-4975
▁ET	-4976
15	-4977
▁Yıldız	-4978
▁Ex	-4979
▁iPhone	-4980
▁İh	-4981
▁barış	-4982
▁suy	-4983
ciler	-4984
▁sıv	-4985
iki	-4986
omet	-4987
dığımız	-4988
ÜM	-4989
ERİ	-4990
▁bulmak	-4991
▁itibariyle	-4992
▁kadınlar	-4993
Dİ	-4994
teşem	-4995
▁vitam	-4996
▁gıda	-4997
ksiyon	-4998
▁kurulu	-4999
leniyor	-5000
▁öğretim	-5001
▁bilinç	-5002
▁yaşadığı	-5003
▁Cumhurbaşkan	-5004
ıyız	-5005
▁şeker	-5006
▁Sa	-5007
▁sorunları	-5008
▁çevre	-5009
ordin	-5010
▁hazırlanan	-5011
▁namaz	-5012
▁kullanan	-5013
bahis	-5014
▁taşıyan	-5015
▁Gar	-5016
▁Bölg	-5017
▁yapmanız	-5018
lemeye	-5019
akkale	-5020
sem	-5021
▁Kil	-5022
omp	-5023
▁45	-5024
▁fatur	-5025
▁gitti	-5026
isiklet	-5027
ektörü	-5028
anızı	-5029
▁komisyon	-5030
▁mezun	-5031
tığımız	-5032
onspor	-5033
▁kaps	-5034
▁sitesinde	-5035
▁Bl	-5036
▁Vat	-5037
▁Tun	-5038
▁banka	-5039
▁içindeki	-5040
▁görünüm	-5041
adeniz	-5042
▁Car	-5043
▁Kons	-5044
▁yalan	-5045
▁Bununla	-5046
▁öy	-5047
▁ortamda	-5048
ülmesi	-5049
▁kapan	-5050
dukları	-5051
▁hakları	-5052
▁Araştırma	-5053
▁cinsel	-5054
rag	-5055
▁bence	-5056
▁had	-5057
…]	-5058
▁II	-5059
mesiyle	-5060
▁süren	-5061
▁restor	-5062
▁projesi	-5063
erji	-5064
▁metre	-5065
▁konuşan	-5066
sul	-5067
▁şık	-5068
adıkları	-5069
▁Zir	-5070
▁yaşat	-5071
▁kök	-5072
▁açılan	-5073
▁demektir	-5074
▁kaçın	-5075
▁yenilik	-5076
▁İngilizce	-5077
▁hastalığ	-5078
aza	-5079
▁hepsi	-5080
tren	-5081
ıyordu	-5082
ebilmek	-5083
▁gündeme	-5084
▁zorunlu	-5085
▁sanal	-5086
var	-5087
▁bölümü	-5088
lamış	-5089
olog	-5090
ex	-5091
los	-5092
▁organizasyon	-5093
▁Dep	-5094
leyman	-5095
İYE	-5096
▁karşılaştır	-5097
▁güçlendir	-5098
▁TR	-5099
▁kaynağı	-5100
▁Onun	-5101
▁toplu	-5102
▁koruma	-5103
▁şaşır	-5104
ect	-5105
üldü	-5106
▁tez	-5107
▁kıymet	-5108
▁mümkündür	-5109
▁öt	-5110
▁port	-5111
▁yaşay	-5112
▁İÇ	-5113
▁â	-5114
uğu	-5115
▁benzeri	-5116
▁ces	-5117
amanın	-5118
▁sinyal	-5119
EZ	-5120
▁turizm	-5121
▁edebil	-5122
Biz	-5123
▁mağdur	-5124
▁yatak	-5125
▁maddi	-5126
▁grafik	-5127
▁bedel	-5128
ırlar	-5129
▁Tıp	-5130
▁ismi	-5131
ker	-5132
▁olmalı	-5133
▁Mel	-5134
mesinde	-5135
▁Hüküm	-5136
▁şarkı	-5137
duğunuz	-5138
▁Kaç	-5139
übü	-5140
▁birleştir	-5141
▁büyüm	-5142
emizin	-5143
▁Amerikan	-5144
▁geldiği	-5145
▁demiş	-5146
fed	-5147
anları	-5148
▁Cumartesi	-5149
▁kartı	-5150
▁ren	-5151
▁kendilerini	-5152
▁kamp	-5153
▁sorunun	-5154
▁harit	-5155
▁rezerv	-5156
▁uyarı	-5157
▁Ekonomi	-5158
▁vadeli	-5159
▁besin	-5160
▁ölçüde	-5161
obot	-5162
▁edilebilir	-5163
▁Sil	-5164
bek	-5165
▁rakip	-5166
▁Hız	-5167
▁yetenek	-5168
▁Bahç	-5169
▁yöntemi	-5170
▁süreçte	-5171
▁Saç	-5172
alanan	-5173
▁muhal	-5174
▁Gençlik	-5175
yol	-5176
▁FETÖ	-5177
▁tanış	-5178
▁denet	-5179
▁vs	-5180
ment	-5181
▁hayatı	-5182
▁bakımından	-5183
▁üretic	-5184
▁başlangıç	-5185
▁mül	-5186
▁arka	-5187
▁Mat	-5188
ill	-5189
▁terk	-5190
▁akadem	-5191
▁buraya	-5192
Tİ	-5193
▁zamanı	-5194
▁düşünüyor	-5195
▁şehr	-5196
▁üyeleri	-5197
▁Komisyon	-5198
▁Aile	-5199
örü	-5200
▁demir	-5201
▁YAP	-5202
▁Ordu	-5203
▁yayınlanan	-5204
En	-5205
▁Trump	-5206
▁istediği	-5207
▁ağırlık	-5208
▁değin	-5209
nan	-5210
lamaya	-5211
▁Gru	-5212
▁Rek	-5213
▁Mısır	-5214
CI	-5215
▁Turizm	-5216
▁ilişkiler	-5217
ome	-5218
▁Bundan	-5219
▁Şahin	-5220
▁Sitesi	-5221
▁ulusal	-5222
kal	-5223
▁birinin	-5224
▁AD	-5225
vel	-5226
▁pratik	-5227
▁yükselt	-5228
▁iken	-5229
▁böylece	-5230
malarını	-5231
▁Selçuk	-5232
ÜL	-5233
▁hük	-5234
▁sonuçları	-5235
▁arkadaşlar	-5236
veren	-5237
▁Kamp	-5238
▁mevcuttur	-5239
▁aram	-5240
▁umut	-5241
▁Ukray	-5242
▁eb	-5243
▁Danış	-5244
▁komp	-5245
acaksınız	-5246
▁bahsed	-5247
▁işlemler	-5248
▁zir	-5249
ayasa	-5250
afer	-5251
▁Yaşam	-5252
▁Din	-5253
lerimize	-5254
▁ülkemizde	-5255
▁yaklaşım	-5256
▁[…]	-5257
ıntılı	-5258
▁yoluyla	-5259
aseb	-5260
▁Don	-5261
▁işçi	-5262
▁girdi	-5263
▁seyir	-5264
▁aralık	-5265
odrum	-5266
dığınız	-5267
▁etki	-5268
▁maçı	-5269
▁Araç	-5270
▁Yurt	-5271
▁türü	-5272
▁Ceza	-5273
likler	-5274
illa	-5275
▁saha	-5276
▁tedavisi	-5277
▁kısım	-5278
tın	-5279
▁açıdan	-5280
▁Dig	-5281
▁Online	-5282
sef	-5283
▁İŞ	-5284
des	-5285
etiyle	-5286
ildiğini	-5287
▁adlandır	-5288
▁petrol	-5289
▁Kamu	-5290
▁32	-5291
▁ekibi	-5292
▁sıfır	-5293
▁lig	-5294
▁Öğrenc	-5295
vey	-5296
▁Beyaz	-5297
daa	-5298
org	-5299
▁Düzen	-5300
▁hasar	-5301
▁istif	-5302
▁Kullanıcı	-5303
kur	-5304
▁İmam	-5305
▁aj	-5306
▁Sun	-5307
▁bors	-5308
▁birini	-5309
▁Instagram	-5310
dol	-5311
kisi	-5312
▁bahç	-5313
▁fer	-5314
▁taşıma	-5315
ılıp	-5316
erasyonu	-5317
▁Kaymak	-5318
▁düzelt	-5319
▁İdar	-5320
▁oynan	-5321
▁yapın	-5322
▁dönemi	-5323
▁müdahale	-5324
▁ilginç	-5325
▁Iş	-5326
▁buz	-5327
▁yansıt	-5328
alesef	-5329
abiliriz	-5330
▁Peygamber	-5331
▁Süleyman	-5332
▁Hotel	-5333
▁tasarruf	-5334
akkabı	-5335
liy	-5336
arik	-5337
▁anti	-5338
▁üniversite	-5339
edava	-5340
▁Vali	-5341
▁Kategor	-5342
adığınız	-5343
▁sağlayacak	-5344
▁Turk	-5345
▁vermeye	-5346
▁Ya	-5347
▁vermektedir	-5348
▁Başvur	-5349
▁incelen	-5350
▁Yah	-5351
▁fayda	-5352
lanacak	-5353
▁Plan	-5354
▁yaşamak	-5355
▁memur	-5356
▁HABER	-5357
▁Kup	-5358
▁Kredi	-5359
errah	-5360
ris	-5361
▁kurs	-5362
▁seni	-5363
lav	-5364
▁TB	-5365
▁İşlet	-5366
▁Cih	-5367
▁Kent	-5368
▁Siyas	-5369
öğretim	-5370
eceğimiz	-5371
meyin	-5372
▁dalg	-5373
▁yapımı	-5374
▁mens	-5375
▁muhtem	-5376
▁kanıt	-5377
▁yangın	-5378
▁daim	-5379
lastik	-5380
▁nam	-5381
▁amaçlı	-5382
adığımız	-5383
▁dip	-5384
▁İndir	-5385
▁sanatçı	-5386
▁Kendi	-5387
▁otobüs	-5388
▁karşılan	-5389
▁esnasında	-5390
▁sever	-5391
LIK	-5392
▁sizler	-5393
▁düşman	-5394
▁gerektiği	-5395
▁karşıya	-5396
▁modeli	-5397
▁yakından	-5398
▁Fer	-5399
▁Kav	-5400
▁yaptıkları	-5401
andarma	-5402
▁Oğ	-5403
▁tarayı	-5404
ilerden	-5405
▁bulabilirsiniz	-5406
itap	-5407
UK	-5408
▁ER	-5409
▁eşi	-5410
▁Öğren	-5411
▁ulaştır	-5412
▁Olay	-5413
anlıur	-5414
▁buradan	-5415
▁Trabzonspor	-5416
▁yolcu	-5417
▁istedi	-5418
▁gerç	-5419
▁düşen	-5420
▁bugüne	-5421
abilirler	-5422
▁kalite	-5423
UZ	-5424
▁AY	-5425
▁korumak	-5426
▁kolaylaştır	-5427
▁seviye	-5428
▁rekabet	-5429
▁ten	-5430
▁oranında	-5431
emizi	-5432
TI	-5433
▁Kızıl	-5434
▁şub	-5435
lor	-5436
▁kurumsal	-5437
▁Çanakkale	-5438
ıklı	-5439
▁Fet	-5440
▁Park	-5441
▁Hazır	-5442
TA	-5443
▁medy	-5444
▁İliş	-5445
iyel	-5446
DEN	-5447
▁HDP	-5448
▁bilgiye	-5449
▁Yağ	-5450
80	-5451
▁büyü	-5452
▁galib	-5453
▁şef	-5454
▁kitabı	-5455
▁nesil	-5456
▁miktarda	-5457
madığını	-5458
ilmez	-5459
ınday	-5460
▁fiziksel	-5461
▁edilmiştir	-5462
ARI	-5463
▁aşı	-5464
▁sunu	-5465
▁sunulan	-5466
osya	-5467
▁süs	-5468
▁Polis	-5469
▁ideal	-5470
sk	-5471
ica	-5472
▁sayfa	-5473
▁görevi	-5474
▁istihdam	-5475
okol	-5476
▁Finans	-5477
lus	-5478
▁anında	-5479
▁geçer	-5480
ice	-5481
urk	-5482
▁evlilik	-5483
▁sürecinde	-5484
▁Ner	-5485
paşa	-5486
▁Grup	-5487
emize	-5488
ilmesini	-5489
▁darbe	-5490
▁ulaşabilirsiniz	-5491
▁ağr	-5492
▁hücr	-5493
gaz	-5494
gah	-5495
▁şark	-5496
ho	-5497
▁Fransız	-5498
▁veril	-5499
ılmasına	-5500
▁üretimi	-5501
tılar	-5502
▁bütç	-5503
▁renkli	-5504
▁edilecek	-5505
ılmasını	-5506
▁Sarı	-5507
▁konak	-5508
itir	-5509
diniz	-5510
melidir	-5511
▁kimlik	-5512
▁Karadeniz	-5513
uşak	-5514
▁yönünde	-5515
▁Ödül	-5516
▁İspan	-5517
▁TÜRK	-5518
▁kıyaf	-5519
▁depol	-5520
▁kanser	-5521
iti	-5522
▁ağrı	-5523
▁yenilen	-5524
▁yarın	-5525
▁80	-5526
▁belirtildi	-5527
▁Yunanistan	-5528
▁aldım	-5529
▁dönüşüm	-5530
soy	-5531
▁artan	-5532
lendirme	-5533
yaj	-5534
▁Ort	-5535
▁yapısı	-5536
▁by	-5537
yasal	-5538
▁dava	-5539
▁kullanılabilir	-5540
▁adeta	-5541
▁Tal	-5542
100	-5543
ümr	-5544
▁End	-5545
▁birbirinden	-5546
▁yerden	-5547
▁Rüyada	-5548
▁gidiyor	-5549
▁Gaz	-5550
▁Temiz	-5551
▁herkese	-5552
▁fabrik	-5553
▁bünyesinde	-5554
kim	-5555
▁Far	-5556
▁Tok	-5557
▁Ligi	-5558
düğünü	-5559
▁görünüyor	-5560
▁hur	-5561
▁Ulusal	-5562
▁haberi	-5563
▁idi	-5564
ağını	-5565
▁edilmektedir	-5566
kent	-5567
lob	-5568
isyen	-5569
▁sarı	-5570
deri	-5571
▁bask	-5572
▁deprem	-5573
▁Fır	-5574
!"	-5575
▁sevin	-5576
▁kred	-5577
▁ulaşım	-5578
▁yarı	-5579
▁konuk	-5580
yaspor	-5581
imiçi	-5582
▁hastalığı	-5583
▁gazetec	-5584
▁Dünyanın	-5585
▁vide	-5586
▁taraftar	-5587
▁mevzu	-5588
▁Eskişehir	-5589
siyet	-5590
▁farklılık	-5591
▁Demokr	-5592
▁mekt	-5593
▁ülkeler	-5594
▁Pek	-5595
▁toz	-5596
lemesi	-5597
▁bölümünde	-5598
▁acil	-5599
onun	-5600
▁Politik	-5601
▁Tav	-5602
▁nefes	-5603
ÜZ	-5604
landa	-5605
▁sistemleri	-5606
ıldığında	-5607
menizi	-5608
▁sergil	-5609
▁bozul	-5610
▁verimli	-5611
▁barındır	-5612
▁açıklaması	-5613
▁sam	-5614
ral	-5615
itesi	-5616
▁olacağı	-5617
▁Arab	-5618
▁Casino	-5619
▁90	-5620
▁çekti	-5621
▁hapis	-5622
▁Afrika	-5623
eceksiniz	-5624
rat	-5625
▁müdahal	-5626
▁salg	-5627
▁Yemek	-5628
▁Post	-5629
▁elbette	-5630
▁kadınların	-5631
▁olduklarını	-5632
▁www	-5633
İYOR	-5634
daroğlu	-5635
▁tanesi	-5636
danı	-5637
▁isterseniz	-5638
▁zinc	-5639
TE	-5640
▁ayn	-5641
▁Forum	-5642
▁belirlenen	-5643
dığım	-5644
▁gösterdi	-5645
SO	-5646
▁bende	-5647
mediği	-5648
era	-5649
▁Bayan	-5650
▁insanlara	-5651
ıydı	-5652
▁tıp	-5653
▁verim	-5654
▁uyumlu	-5655
▁faydalı	-5656
▁anahtar	-5657
▁Kısa	-5658
▁Denizli	-5659
ığında	-5660
▁Medya	-5661
▁Ukrayna	-5662
▁inceley	-5663
▁fonksiyon	-5664
▁Şen	-5665
itif	-5666
rol	-5667
▁Çift	-5668
▁Çalışma	-5669
ahh	-5670
▁kere	-5671
eğine	-5672
▁tamamlan	-5673
▁300	-5674
▁ilişki	-5675
1.	-5676
▁be	-5677
▁yüzünden	-5678
▁tit	-5679
▁anlatan	-5680
▁Toplum	-5681
▁tor	-5682
▁refer	-5683
İş	-5684
▁talim	-5685
▁göl	-5686
▁Öğretmen	-5687
diklerini	-5688
▁ust	-5689
▁yah	-5690
▁tok	-5691
▁araştırmalar	-5692
▁roman	-5693
▁kültürel	-5694
ash	-5695
kel	-5696
▁Karab	-5697
▁De	-5698
▁önde	-5699
ong	-5700
▁Model	-5701
▁süredir	-5702
▁Ders	-5703
▁malzeme	-5704
▁niyet	-5705
▁sektöründe	-5706
▁ÖZ	-5707
▁zorluk	-5708
▁Muhammed	-5709
ive	-5710
▁alb	-5711
▁Avust	-5712
adir	-5713
teyiz	-5714
▁çalışmak	-5715
melerin	-5716
▁birer	-5717
▁(3	-5718
▁öncesinde	-5719
▁pah	-5720
▁verilir	-5721
▁olabilirsiniz	-5722
anlık	-5723
riyet	-5724
▁Sakarya	-5725
▁görüyor	-5726
▁Asya	-5727
▁İsv	-5728
▁parça	-5729
▁yüküm	-5730
▁platformu	-5731
▁Lim	-5732
ayıt	-5733
▁çıkacak	-5734
▁Bölüm	-5735
▁Madde	-5736
▁Kurumu	-5737
▁Öncelikle	-5738
▁avukat	-5739
▁başladığ	-5740
ight	-5741
▁Cevap	-5742
▁pişir	-5743
▁önümüzdeki	-5744
▁vererek	-5745
▁mahall	-5746
ail	-5747
gari	-5748
ketbol	-5749
▁yılından	-5750
▁EN	-5751
▁günler	-5752
▁Kayseri	-5753
▁Dışişleri	-5754
▁EK	-5755
▁duruma	-5756
▁hazırlan	-5757
irli	-5758
TR	-5759
ena	-5760
▁diler	-5761
▁İtalya	-5762
▁yüzey	-5763
▁sınırlı	-5764
▁rej	-5765
▁Fotoğraf	-5766
ug	-5767
▁birleş	-5768
şe	-5769
▁Birçok	-5770
▁getirmek	-5771
müştür	-5772
▁Koç	-5773
anlıurfa	-5774
-5	-5775
▁İsmail	-5776
▁öğrencilerin	-5777
▁tarihleri	-5778
▁koronavirüs	-5779
ılmaktadır	-5780
ife	-5781
sar	-5782
▁Aşağı	-5783
▁edildiği	-5784
meyecek	-5785
▁coğraf	-5786
ruk	-5787
İH	-5788
▁Maç	-5789
▁gördük	-5790
▁link	-5791
malısınız	-5792
▁Sok	-5793
▁farkı	-5794
▁gür	-5795
emeyen	-5796
elal	-5797
ograf	-5798
muyor	-5799
▁Öte	-5800
usunun	-5801
▁kargo	-5802
▁Tasarım	-5803
▁maruz	-5804
▁ep	-5805
▁Uzman	-5806
tayız	-5807
▁Organ	-5808
▁70	-5809
yalı	-5810
▁Art	-5811
▁numarası	-5812
▁Temel	-5813
▁yaşlı	-5814
▁düzeyde	-5815
▁Giz	-5816
▁gurur	-5817
▁hata	-5818
▁kara	-5819
▁biçim	-5820
▁çekici	-5821
▁Devam	-5822
kor	-5823
▁halkın	-5824
▁bilimsel	-5825
▁sonuçlar	-5826
▁zek	-5827
▁Doğru	-5828
▁sunar	-5829
uğla	-5830
▁plak	-5831
▁cezası	-5832
öp	-5833
▁küt	-5834
▁makam	-5835
▁trend	-5836
alandır	-5837
▁Mez	-5838
▁Çevre	-5839
▁görür	-5840
lıkları	-5841
▁alanları	-5842
ağına	-5843
▁dekor	-5844
▁ofis	-5845
▁Sivas	-5846
▁tabii	-5847
▁Th	-5848
▁chat	-5849
▁iyileştir	-5850
▁Min	-5851
▁elb	-5852
▁olduğunda	-5853
azığ	-5854
▁Tor	-5855
▁yapıldığı	-5856
DAN	-5857
▁cok	-5858
irler	-5859
▁Bebek	-5860
▁grubu	-5861
▁gereği	-5862
▁Gal	-5863
tifik	-5864
25	-5865
▁bileş	-5866
▁Satış	-5867
▁söylen	-5868
▁öncelik	-5869
▁gelişmiş	-5870
▁adalet	-5871
▁gerekç	-5872
sh	-5873
▁iletişime	-5874
▁kusur	-5875
▁tanıtım	-5876
tıkları	-5877
ıd	-5878
und	-5879
▁dayalı	-5880
▁Boğ	-5881
▁Paşa	-5882
amuk	-5883
stit	-5884
▁Rab	-5885
ferans	-5886
▁yiyecek	-5887
mamaktadır	-5888
▁Fa	-5889
▁Con	-5890
ansiyon	-5891
▁konuşma	-5892
▁hır	-5893
▁şirketin	-5894
ediklerini	-5895
▁akış	-5896
▁aldık	-5897
▁gelip	-5898
▁geleceğ	-5899
▁geleneksel	-5900
LA	-5901
▁sanayi	-5902
▁olmadığ	-5903
▁Eb	-5904
▁oynay	-5905
▁çalışmalarını	-5906
▁dikkatli	-5907
eyh	-5908
▁Reh	-5909
▁sunmaktadır	-5910
ansız	-5911
▁muhteşem	-5912
▁final	-5913
▁Pas	-5914
▁çekme	-5915
fat	-5916
▁Güç	-5917
▁Mu	-5918
▁Orman	-5919
▁hayırlı	-5920
▁görüşmeler	-5921
▁ada	-5922
ace	-5923
▁Cadde	-5924
şap	-5925
▁köt	-5926
▁kaybol	-5927
▁işbirliği	-5928
▁istey	-5929
▁çağır	-5930
▁kaybetti	-5931
▁bekleniyor	-5932
▁Doğan	-5933
vekil	-5934
▁civarında	-5935
▁Kılıçdaroğlu	-5936
insel	-5937
üstr	-5938
▁masraf	-5939
▁Değer	-5940
acağımız	-5941
gat	-5942
▁SP	-5943
-6	-5944
sinde	-5945
▁Blog	-5946
▁muhab	-5947
ull	-5948
▁mühendis	-5949
isiz	-5950
usuf	-5951
demi	-5952
tifak	-5953
▁Geçen	-5954
▁diyet	-5955
▁mimar	-5956
ilmesine	-5957
▁yetkili	-5958
▁günümüz	-5959
▁enflasyon	-5960
ick	-5961
▁ku	-5962
▁Ann	-5963
imden	-5964
▁Karar	-5965
▁Şube	-5966
▁şeyin	-5967
▁6.	-5968
▁Rad	-5969
▁köpek	-5970
stanbul	-5971
▁dedim	-5972
▁Üyesi	-5973
▁temizlik	-5974
own	-5975
▁doy	-5976
▁insanı	-5977
▁Yukarı	-5978
▁Projesi	-5979
▁Programı	-5980
19	-5981
:)	-5982
▁Tut	-5983
▁müs	-5984
otos	-5985
▁keyifli	-5986
▁birbirine	-5987
▁başlayacak	-5988
▁olmaması	-5989
▁yürüyüş	-5990
▁sorunlar	-5991
▁egz	-5992
mekten	-5993
▁aydınlat	-5994
mı	-5995
mosyon	-5996
▁taban	-5997
▁kabil	-5998
▁olası	-5999
▁temas	-6000
▁;	-6001
▁yitir	-6002
▁geril	-6003
▁Filistin	-6004
▁seçeneği	-6005
sey	-6006
▁vatandaşlar	-6007
osk	-6008
▁Naz	-6009
▁mac	-6010
▁Grubu	-6011
▁uygulamaları	-6012
▁İST	-6013
▁Bölge	-6014
▁Zaten	-6015
▁savunma	-6016
laşık	-6017
▁Etkin	-6018
▁takımı	-6019
▁çağrı	-6020
▁noktası	-6021
sızın	-6022
▁Festiv	-6023
lerindeki	-6024
▁Bodrum	-6025
▁Enerji	-6026
▁verilmesi	-6027
▁Mag	-6028
▁usul	-6029
▁tablo	-6030
▁ederiz	-6031
▁dini	-6032
▁Gam	-6033
ulur	-6034
▁Duy	-6035
omo	-6036
acık	-6037
▁yarım	-6038
▁Sınav	-6039
sesuar	-6040
▁Se	-6041
▁Emek	-6042
▁potansiyel	-6043
▁yazık	-6044
▁klasik	-6045
▁Sistemi	-6046
▁söylemek	-6047
▁Kahraman	-6048
▁ücreti	-6049
▁Ege	-6050
masın	-6051
▁ufak	-6052
▁gidi	-6053
▁gayret	-6054
▁aralarında	-6055
▁geçici	-6056
▁yerlerde	-6057
tek	-6058
▁günden	-6059
▁sağlığı	-6060
▁yolunda	-6061
▁Hik	-6062
▁sürece	-6063
▁sermaye	-6064
▁Kazan	-6065
layacak	-6066
▁servisi	-6067
▁Hakan	-6068
Son	-6069
▁günün	-6070
▁kazanan	-6071
▁beyan	-6072
▁Şehit	-6073
deb	-6074
▁Dar	-6075
▁kulüp	-6076
▁TÜ	-6077
▁34	-6078
▁edeceğiz	-6079
aşı	-6080
▁Engel	-6081
▁kaçak	-6082
eliği	-6083
▁yazıl	-6084
▁İN	-6085
amayacak	-6086
ende	-6087
slan	-6088
İLER	-6089
▁düşünül	-6090
▁işgal	-6091
14	-6092
▁mir	-6093
▁kazanma	-6094
les	-6095
16	-6096
ous	-6097
▁kadının	-6098
ÖN	-6099
▁ris	-6100
▁Digit	-6101
▁biy	-6102
leket	-6103
uşturucu	-6104
▁yükseliş	-6105
▁tarihli	-6106
▁Ücretsiz	-6107
▁kaybed	-6108
ulmuş	-6109
▁göstermektedir	-6110
bat	-6111
▁üstüne	-6112
▁verici	-6113
▁Hizmetleri	-6114
eter	-6115
rosoft	-6116
▁ettim	-6117
ole	-6118
sav	-6119
▁İle	-6120
▁harekete	-6121
ebi	-6122
ülük	-6123
▁kamera	-6124
▁çam	-6125
led	-6126
▁Ec	-6127
lerken	-6128
ibe	-6129
▁se	-6130
▁Küt	-6131
▁Rum	-6132
▁şahıs	-6133
indistan	-6134
▁cami	-6135
▁kalem	-6136
▁itiraz	-6137
▁araçları	-6138
▁günümüzde	-6139
▁ır	-6140
▁yatırma	-6141
▁tıklayın	-6142
▁soruşturma	-6143
▁Hangi	-6144
▁netic	-6145
▁İkili	-6146
▁Rapor	-6147
kırı	-6148
üye	-6149
▁Bunların	-6150
▁alınarak	-6151
▁yolda	-6152
▁havuz	-6153
▁orman	-6154
atistik	-6155
▁Konu	-6156
▁darb	-6157
▁aşağıda	-6158
▁iyice	-6159
▁izlen	-6160
▁altını	-6161
▁gelmesi	-6162
▁yönde	-6163
▁olmayı	-6164
▁PR	-6165
▁çocuğun	-6166
▁sözleşme	-6167
▁kullandığı	-6168
fik	-6169
▁nelerdir	-6170
▁oluşturmak	-6171
▁kullanıcıların	-6172
▁kimi	-6173
▁mür	-6174
▁Samsung	-6175
rens	-6176
▁babası	-6177
▁yapılıyor	-6178
▁Öl	-6179
▁Bayramı	-6180
▁kullanılması	-6181
▁çök	-6182
▁Erzurum	-6183
zat	-6184
▁üstünde	-6185
▁Kayıt	-6186
▁33	-6187
▁çalışır	-6188
▁gelmektedir	-6189
▁nin	-6190
▁husus	-6191
amaya	-6192
▁lok	-6193
LAM	-6194
▁vir	-6195
▁İlgili	-6196
▁alanlar	-6197
▁kaybı	-6198
ematik	-6199
yu	-6200
▁garant	-6201
▁AV	-6202
▁Platform	-6203
ayol	-6204
cının	-6205
ijinal	-6206
▁olağan	-6207
▁eğlenceli	-6208
üce	-6209
▁ağz	-6210
▁uygulanan	-6211
▁etkiley	-6212
▁Sı	-6213
▁!	-6214
▁doz	-6215
espor	-6216
▁tutan	-6217
▁sinir	-6218
▁emekli	-6219
▁dakikada	-6220
▁gerçekleşen	-6221
▁elinde	-6222
▁Vol	-6223
elendir	-6224
ahis	-6225
▁Karak	-6226
▁sunduğu	-6227
abileceğini	-6228
▁Fu	-6229
▁Şanlıurfa	-6230
▁meydan	-6231
unuzun	-6232
▁Kişisel	-6233
urta	-6234
▁Elektrik	-6235
oper	-6236
▁devletin	-6237
ko	-6238
leğ	-6239
▁Ara	-6240
▁Paylaş	-6241
▁kahraman	-6242
▁ürünlerin	-6243
▁gök	-6244
şu	-6245
▁işleri	-6246
▁Diz	-6247
▁rehber	-6248
▁yağmur	-6249
▁Lond	-6250
▁genelde	-6251
▁telefonu	-6252
▁İÇİN	-6253
▁dilek	-6254
▁TBMM	-6255
▁mali	-6256
▁Video	-6257
▁Vakfı	-6258
▁alanlarda	-6259
▁bı	-6260
abor	-6261
ıldığını	-6262
ach	-6263
tıcı	-6264
▁Sem	-6265
maların	-6266
▁olasıl	-6267
▁kov	-6268
▁dağı	-6269
▁konularda	-6270
2.	-6271
▁Be	-6272
▁ob	-6273
▁yıllardır	-6274
ırsak	-6275
▁alması	-6276
▁oynamak	-6277
▁bireysel	-6278
▁kuzey	-6279
▁gecik	-6280
▁etmeniz	-6281
amış	-6282
memesi	-6283
▁gidip	-6284
▁edildiğ	-6285
▁uygulamalar	-6286
▁katılımcı	-6287
▁cumhur	-6288
▁örgütü	-6289
▁mutluluk	-6290
▁olmadı	-6291
▁miktarı	-6292
irim	-6293
▁beklem	-6294
ecik	-6295
ilip	-6296
lobal	-6297
▁yapıyoruz	-6298
top	-6299
▁Emre	-6300
▁Kaf	-6301
▁yel	-6302
ağında	-6303
▁Doktor	-6304
▁kalıcı	-6305
▁Doğal	-6306
▁adayı	-6307
▁bazıları	-6308
▁eh	-6309
▁Fik	-6310
▁büyüme	-6311
▁çekim	-6312
▁cem	-6313
yeni	-6314
▁Çay	-6315
larınıza	-6316
çisi	-6317
▁alışkan	-6318
▁güvenliği	-6319
araj	-6320
stra	-6321
▁metrek	-6322
▁Ardından	-6323
▁teşekkürler	-6324
▁Com	-6325
▁BM	-6326
▁Önce	-6327
▁sebeple	-6328
▁haberler	-6329
▁May	-6330
likte	-6331
▁anlattı	-6332
▁Birleşik	-6333
üks	-6334
▁gerektiğ	-6335
▁Paris	-6336
alimanı	-6337
▁Meclisi	-6338
▁firması	-6339
Er	-6340
▁Kuş	-6341
▁çatış	-6342
▁beklenen	-6343
ağının	-6344
iyordu	-6345
int	-6346
Dev	-6347
▁arasından	-6348
▁pazarlama	-6349
bel	-6350
▁yolculuk	-6351
▁aykırı	-6352
atın	-6353
▁Baz	-6354
▁fırsatı	-6355
ümrük	-6356
ester	-6357
▁Not	-6358
▁meclis	-6359
va	-6360
▁Azer	-6361
▁Mesaj	-6362
hats	-6363
biy	-6364
usuz	-6365
▁sporcu	-6366
▁hatt	-6367
▁Abdullah	-6368
xy	-6369
▁Co	-6370
▁Kral	-6371
▁Değiş	-6372
DU	-6373
▁derecede	-6374
paz	-6375
▁güne	-6376
mr	-6377
cılığ	-6378
▁Alın	-6379
▁pozitif	-6380
▁panel	-6381
▁yapmayı	-6382
▁yurtd	-6383
▁Örg	-6384
▁terörist	-6385
çın	-6386
ding	-6387
▁Takım	-6388
▁Proje	-6389
▁yoktu	-6390
▁bonusu	-6391
ükle	-6392
▁gayet	-6393
▁metal	-6394
▁Kulübü	-6395
▁yaralı	-6396
▁oğlu	-6397
▁araba	-6398
▁meyve	-6399
▁Merhaba	-6400
lüğe	-6401
▁mantık	-6402
nuv	-6403
▁kitl	-6404
▁konser	-6405
▁Gazete	-6406
▁versiyon	-6407
▁yetersiz	-6408
ym	-6409
▁Elazığ	-6410
▁alınır	-6411
▁kazandı	-6412
▁yakalan	-6413
▁bağış	-6414
▁yerler	-6415
▁azından	-6416
▁görüyoruz	-6417
▁ilave	-6418
▁tüketim	-6419
▁manz	-6420
ıllı	-6421
▁zamanında	-6422
ısıyla	-6423
leyecek	-6424
▁öğrenmek	-6425
yiz	-6426
jen	-6427
▁saatlerinde	-6428
oo	-6429
▁donanım	-6430
iğe	-6431
▁kalmış	-6432
▁Bölgesi	-6433
EŞ	-6434
ue	-6435
lâm	-6436
tein	-6437
leki	-6438
▁gitmek	-6439
▁ente	-6440
▁Sözleş	-6441
▁kullanıc	-6442
rip	-6443
▁KUR	-6444
▁hayran	-6445
ıbbi	-6446
▁Günlük	-6447
iyetini	-6448
▁antren	-6449
landığı	-6450
▁Mik	-6451
▁vası	-6452
▁şirketleri	-6453
▁bilen	-6454
▁Bül	-6455
▁verme	-6456
name	-6457
imum	-6458
▁sanki	-6459
▁mutfak	-6460
▁çey	-6461
▁alıcı	-6462
▁BİL	-6463
▁Hareket	-6464
lukla	-6465
13	-6466
▁kağıt	-6467
▁duyurdu	-6468
▁hali	-6469
▁garanti	-6470
18	-6471
▁yorumlar	-6472
▁yaptığımız	-6473
ann	-6474
ebilen	-6475
▁cenaz	-6476
▁ondan	-6477
▁yapıp	-6478
▁ulaşmak	-6479
▁geldiğini	-6480
Ay	-6481
▁inanç	-6482
▁satışa	-6483
lima	-6484
▁Tür	-6485
▁oranda	-6486
LİK	-6487
▁Yusuf	-6488
▁edici	-6489
▁sürüyor	-6490
▁mikro	-6491
▁konfor	-6492
▁etmiştir	-6493
▁attı	-6494
▁ayda	-6495
▁Mesel	-6496
▁zamanlar	-6497
▁sürücü	-6498
▁#	-6499
▁boyu	-6500
larınızın	-6501
▁hizmetler	-6502
▁nas	-6503
ebilirim	-6504
▁Üzer	-6505
▁Doç	-6506
▁Faz	-6507
▁Belki	-6508
atlar	-6509
▁Tabii	-6510
▁ayakkabı	-6511
▁est	-6512
okulu	-6513
▁bağlam	-6514
……	-6515
▁kaza	-6516
zan	-6517
▁olduğum	-6518
INDA	-6519
▁kendinizi	-6520
▁Renk	-6521
▁yürür	-6522
▁zemin	-6523
EH	-6524
▁denk	-6525
ood	-6526
▁mor	-6527
▁gerekse	-6528
▁firmamız	-6529
▁verileri	-6530
▁yöntemleri	-6531
▁Görev	-6532
▁yönel	-6533
ola	-6534
urdu	-6535
▁inc	-6536
▁arayan	-6537
▁bileti	-6538
▁çevrimiçi	-6539
do	-6540
▁65	-6541
▁robot	-6542
▁Resmi	-6543
▁imkân	-6544
▁karbon	-6545
otik	-6546
▁La	-6547
ette	-6548
baycan	-6549
▁SON	-6550
▁beyin	-6551
▁ekmek	-6552
▁eklem	-6553
▁Nev	-6554
▁inceleme	-6555
ech	-6556
▁izlem	-6557
▁durumun	-6558
▁Psik	-6559
▁kilit	-6560
▁alakalı	-6561
▁makinesi	-6562
▁projeler	-6563
▁Stan	-6564
▁Zor	-6565
▁yapması	-6566
tre	-6567
▁sız	-6568
ayas	-6569
▁nö	-6570
▁Hemen	-6571
Kar	-6572
▁buldu	-6573
▁hayatta	-6574
▁üstü	-6575
▁İlan	-6576
▁muhaf	-6577
▁görm	-6578
▁Günümüzde	-6579
▁sürüm	-6580
▁beslenme	-6581
ürken	-6582
elerek	-6583
▁Yür	-6584
▁İşleri	-6585
ider	-6586
▁piyasasında	-6587
▁tazmin	-6588
ader	-6589
emey	-6590
▁yanına	-6591
▁bitk	-6592
sp	-6593
▁Savaşı	-6594
▁Çak	-6595
▁evden	-6596
▁kariyer	-6597
▁bulunması	-6598
▁piyasaya	-6599
zi	-6600
İST	-6601
▁karşımıza	-6602
dün	-6603
makla	-6604
▁birimi	-6605
prü	-6606
▁baba	-6607
▁bisiklet	-6608
▁mensup	-6609
▁göğ	-6610
ceği	-6611
▁Yönetimi	-6612
▁süper	-6613
öly	-6614
▁oyunun	-6615
▁Özgür	-6616
▁Ziyaret	-6617
▁odası	-6618
eşme	-6619
▁maddesi	-6620
▁Ur	-6621
▁no	-6622
▁çor	-6623
parator	-6624
▁seçimi	-6625
ami	-6626
▁oranları	-6627
▁şifr	-6628
▁sağlamaktadır	-6629
▁Fran	-6630
▁siteler	-6631
abalık	-6632
duğum	-6633
▁maalesef	-6634
▁çocukları	-6635
40	-6636
▁Çöz	-6637
▁Tabi	-6638
▁araz	-6639
ilerinden	-6640
▁Yat	-6641
▁Kes	-6642
▁muk	-6643
▁Hayvan	-6644
▁Cor	-6645
▁halen	-6646
rimenkul	-6647
▁düğün	-6648
emektedir	-6649
ben	-6650
▁ölü	-6651
ebilmektedir	-6652
▁Dağ	-6653
▁engelli	-6654
leyip	-6655
▁metin	-6656
▁edebiyat	-6657
▁kıyas	-6658
▁düzenleme	-6659
▁istis	-6660
▁Eğit	-6661
INI	-6662
itika	-6663
utin	-6664
▁toplumun	-6665
lasman	-6666
▁Geçtiğimiz	-6667
▁tuş	-6668
▁Cep	-6669
▁başlıklı	-6670
mara	-6671
▁mel	-6672
▁yetk	-6673
▁Te	-6674
İB	-6675
şi	-6676
▁Taraf	-6677
▁rekor	-6678
veya	-6679
▁ayrıntı	-6680
ua	-6681
▁şartları	-6682
▁dey	-6683
▁Yarış	-6684
leştirme	-6685
▁kâ	-6686
endi	-6687
andev	-6688
▁Dolar	-6689
▁forum	-6690
▁Farklı	-6691
ith	-6692
▁nem	-6693
▁cüml	-6694
▁çalışmaya	-6695
▁Dek	-6696
▁silin	-6697
▁yaşıyor	-6698
MAN	-6699
▁alımı	-6700
▁Göster	-6701
▁devrim	-6702
▁Bilgisayar	-6703
▁Tarif	-6704
▁gereksin	-6705
uncu	-6706
ilerde	-6707
▁kalır	-6708
▁baktığ	-6709
ütü	-6710
▁ağız	-6711
▁üm	-6712
iğin	-6713
▁Barış	-6714
▁yüzlerce	-6715
▁emir	-6716
simum	-6717
atları	-6718
▁tablet	-6719
▁bilgisi	-6720
ox	-6721
▁Geri	-6722
aylı	-6723
▁parlak	-6724
▁uyan	-6725
▁Kadınlar	-6726
kınma	-6727
cık	-6728
uyum	-6729
Ğİ	-6730
aklı	-6731
DEM	-6732
unuza	-6733
▁sürüc	-6734
ang	-6735
▁belgesi	-6736
kun	-6737
▁sanay	-6738
lanabilir	-6739
öylelikle	-6740
▁genişlet	-6741
Her	-6742
▁Tedav	-6743
▁Konuş	-6744
▁Mahkemesi	-6745
▁atık	-6746
▁kullanıcılar	-6747
▁far	-6748
oid	-6749
▁olmanız	-6750
pa	-6751
uman	-6752
lantı	-6753
eker	-6754
▁Nec	-6755
▁birliği	-6756
▁bizlere	-6757
▁ticareti	-6758
▁yönlü	-6759
İNE	-6760
▁ihlal	-6761
▁tasarımı	-6762
▁anlamı	-6763
▁yolları	-6764
▁Lisesi	-6765
TÜ	-6766
▁Pak	-6767
▁harf	-6768
▁kahve	-6769
beri	-6770
mini	-6771
▁yedek	-6772
▁Servis	-6773
▁Mühendis	-6774
▁Hindistan	-6775
▁olabilecek	-6776
AA	-6777
▁masa	-6778
▁yolculuğ	-6779
▁sıkınt	-6780
uel	-6781
esir	-6782
▁aran	-6783
▁şarj	-6784
ndeki	-6785
".	-6786
▁dom	-6787
▁tavsiy	-6788
▁Cil	-6789
▁sürpr	-6790
▁kapsamlı	-6791
rade	-6792
dirne	-6793
▁ekonomi	-6794
▁You	-6795
▁Sol	-6796
tikten	-6797
▁etmeyi	-6798
▁başlamış	-6799
EÇ	-6800
▁tipi	-6801
▁satım	-6802
▁Gez	-6803
▁oldum	-6804
▁Pen	-6805
muştu	-6806
▁noktasında	-6807
▁halkı	-6808
▁sevgil	-6809
raz	-6810
tih	-6811
▁ısı	-6812
▁karm	-6813
▁kimyasal	-6814
▁Savunma	-6815
▁kimsenin	-6816
ılma	-6817
▁mevsim	-6818
▁zeytin	-6819
MS	-6820
▁üretilen	-6821
elerdir	-6822
▁göm	-6823
ilerle	-6824
cılığı	-6825
▁sunmak	-6826
ometre	-6827
▁rahmet	-6828
▁oyunlar	-6829
IT	-6830
▁İt	-6831
▁mün	-6832
pat	-6833
▁muay	-6834
diy	-6835
alog	-6836
▁Mücad	-6837
▁düşünce	-6838
▁başı	-6839
▁enfeksiyon	-6840
ws	-6841
▁üs	-6842
▁Adam	-6843
▁kişilere	-6844
lup	-6845
lamalar	-6846
elle	-6847
ıyım	-6848
▁Federasyonu	-6849
▁falan	-6850
▁Manisa	-6851
▁Hesap	-6852
-19	-6853
▁katı	-6854
▁Ünlü	-6855
▁rüz	-6856
▁yaptım	-6857
ilmelidir	-6858
▁Di	-6859
▁kelime	-6860
▁maçında	-6861
ELER	-6862
▁açıldı	-6863
▁yılının	-6864
▁dolarlık	-6865
aa	-6866
▁Ağır	-6867
▁Sekret	-6868
İP	-6869
▁37	-6870
▁bez	-6871
enize	-6872
▁Muğla	-6873
▁tedarik	-6874
▁İb	-6875
▁okur	-6876
▁Foreks	-6877
▁değerlendirme	-6878
▁ört	-6879
▁açtı	-6880
▁kaybeden	-6881
▁sisteminin	-6882
▁dez	-6883
▁nih	-6884
sed	-6885
▁Play	-6886
▁kodu	-6887
▁Person	-6888
▁protokol	-6889
▁maçta	-6890
▁emniyet	-6891
▁rahatlıkla	-6892
▁katk	-6893
▁Adalet	-6894
▁unutul	-6895
▁bulunmak	-6896
▁taşımak	-6897
▁Gıda	-6898
▁bilgilere	-6899
▁Hızlı	-6900
▁Gümüş	-6901
▁denir	-6902
▁AS	-6903
teri	-6904
▁önemi	-6905
▁▁	-6906
▁may	-6907
▁korku	-6908
▁odaları	-6909
▁başladık	-6910
▁halka	-6911
▁sektörü	-6912
ME	-6913
▁traf	-6914
utu	-6915
▁Zira	-6916
▁sitenin	-6917
▁yahut	-6918
▁isteyenler	-6919
OC	-6920
▁rö	-6921
▁Üstelik	-6922
▁promosyon	-6923
▁saniye	-6924
▁val	-6925
▁yör	-6926
▁çıkmış	-6927
▁dük	-6928
dayız	-6929
▁turist	-6930
▁İnşaat	-6931
şı	-6932
▁fık	-6933
cüsü	-6934
▁topr	-6935
umuzun	-6936
▁hukuki	-6937
▁150	-6938
▁Londra	-6939
▁kumaş	-6940
▁değildi	-6941
▁Kaya	-6942
lılığ	-6943
▁gram	-6944
manıza	-6945
gül	-6946
ürriyet	-6947
▁olunca	-6948
▁Müşteri	-6949
▁mini	-6950
eğiyle	-6951
lanmaktadır	-6952
▁ED	-6953
▁kâr	-6954
aborat	-6955
ebileceği	-6956
▁riski	-6957
▁olmanın	-6958
iplin	-6959
▁Ortak	-6960
▁Konseyi	-6961
▁alabilir	-6962
▁sevgi	-6963
▁Azerbaycan	-6964
▁Önceki	-6965
▁şimd	-6966
▁Onlar	-6967
anların	-6968
lom	-6969
▁Yapı	-6970
▁Yerel	-6971
▁Kontrol	-6972
▁KON	-6973
▁Site	-6974
▁Microsoft	-6975
▁kişiyi	-6976
▁ettiler	-6977
▁Müzik	-6978
▁içerir	-6979
▁çekiyor	-6980
ARA	-6981
liyoruz	-6982
▁İncel	-6983
17	-6984
şet	-6985
pe	-6986
laç	-6987
▁cüz	-6988
▁ert	-6989
▁Başar	-6990
▁7.	-6991
▁Uğur	-6992
▁admin	-6993
▁sabır	-6994
tuğu	-6995
▁teor	-6996
▁Mağ	-6997
▁Şer	-6998
▁keyf	-6999
ft	-7000
▁Diş	-7001
ayolu	-7002
▁Form	-7003
▁Anayasa	-7004
▁alırken	-7005
dağı	-7006
▁irade	-7007
▁Dikkat	-7008
▁aktivit	-7009
▁bakın	-7010
):	-7011
▁Digiturk	-7012
▁prim	-7013
▁ürünün	-7014
▁seven	-7015
▁merkezinde	-7016
teş	-7017
90	-7018
uda	-7019
▁psikolojik	-7020
▁arşiv	-7021
▁gidiş	-7022
▁ikram	-7023
▁ye	-7024
▁slot	-7025
lanarak	-7026
▁kurmak	-7027
▁olmasa	-7028
▁Servisi	-7029
▁Ge	-7030
▁Orhan	-7031
▁Mis	-7032
▁blok	-7033
▁yapılmaktadır	-7034
tikçe	-7035
▁gördü	-7036
ovid	-7037
▁Sabah	-7038
▁iklim	-7039
isindeki	-7040
▁ziy	-7041
▁anı	-7042
▁eşya	-7043
▁koltuk	-7044
▁sanırım	-7045
bas	-7046
imizle	-7047
▁profil	-7048
▁gözük	-7049
▁Oysa	-7050
avuş	-7051
▁plana	-7052
▁York	-7053
▁sessiz	-7054
▁Metin	-7055
ich	-7056
▁olmaktan	-7057
-10	-7058
tor	-7059
eyse	-7060
balaj	-7061
60	-7062
▁kalb	-7063
▁anlamak	-7064
ino	-7065
▁yağış	-7066
▁Başka	-7067
po	-7068
▁muhalef	-7069
▁alana	-7070
▁süreli	-7071
UŞ	-7072
▁gözden	-7073
▁olamaz	-7074
irt	-7075
ure	-7076
eleriyle	-7077
lıca	-7078
▁Word	-7079
▁selam	-7080
ebilmesi	-7081
▁etkileş	-7082
▁Müdürlüğ	-7083
▁sıvı	-7084
azin	-7085
irin	-7086
▁Kum	-7087
madığ	-7088
▁makyaj	-7089
▁ülkelerin	-7090
adıklarını	-7091
SA	-7092
▁pencer	-7093
Baş	-7094
larken	-7095
▁Terör	-7096
▁ihtimal	-7097
▁Ph	-7098
▁Caddesi	-7099
▁işletme	-7100
ji	-7101
▁pak	-7102
amızda	-7103
KAN	-7104
▁Gol	-7105
▁sevg	-7106
▁deneme	-7107
▁sigorta	-7108
▁Tük	-7109
melisiniz	-7110
▁fiyatlar	-7111
▁48	-7112
▁Uç	-7113
▁Yakın	-7114
▁nakliyat	-7115
lon	-7116
avul	-7117
▁içeriği	-7118
▁hakkını	-7119
etle	-7120
▁oluşturan	-7121
▁serg	-7122
▁stat	-7123
▁lideri	-7124
▁kalitesi	-7125
▁haklı	-7126
▁geçiyor	-7127
▁bildirdi	-7128
▁Uygulama	-7129
ışıklık	-7130
▁taraftan	-7131
▁Hır	-7132
bahar	-7133
ph	-7134
▁Kanunun	-7135
▁sorular	-7136
▁mezar	-7137
ks	-7138
▁vatandaşların	-7139
▁Bi	-7140
lerdeki	-7141
▁Bol	-7142
▁protest	-7143
lerinize	-7144
▁devreye	-7145
tral	-7146
imle	-7147
▁yıla	-7148
▁Bahçeli	-7149
▁medyada	-7150
▁ST	-7151
▁Bölümü	-7152
Bur	-7153
▁44	-7154
▁felsef	-7155
mesinden	-7156
▁Vatandaş	-7157
▁ettikleri	-7158
▁gelmiştir	-7159
▁çöp	-7160
▁sayısının	-7161
üyü	-7162
▁VER	-7163
▁bedava	-7164
▁ilçesi	-7165
▁aylarında	-7166
▁acaba	-7167
ersiniz	-7168
▁akr	-7169
▁Uçak	-7170
▁memleket	-7171
▁Edeb	-7172
▁Basın	-7173
▁kullanıyor	-7174
eğinin	-7175
▁suretiyle	-7176
▁açıklandı	-7177
▁TC	-7178
▁Tip	-7179
▁olayı	-7180
▁olmaları	-7181
isin	-7182
▁400	-7183
▁ödey	-7184
ebileceğiniz	-7185
▁maz	-7186
▁şeyleri	-7187
▁Ail	-7188
lerdi	-7189
▁etken	-7190
▁Jandarma	-7191
▁icra	-7192
▁konuyu	-7193
▁güney	-7194
▁şekli	-7195
▁09	-7196
▁Edirne	-7197
ukur	-7198
▁hitap	-7199
▁gelişme	-7200
▁karşın	-7201
ACAK	-7202
▁çelik	-7203
▁şehrin	-7204
▁paz	-7205
▁sigara	-7206
▁Fiyatları	-7207
çılık	-7208
▁Enstit	-7209
▁sığın	-7210
▁vizyon	-7211
oot	-7212
▁İçişleri	-7213
lıyoruz	-7214
ml	-7215
▁iddaa	-7216
▁oluşur	-7217
▁güz	-7218
▁sırt	-7219
▁sunum	-7220
▁Yaklaşık	-7221
api	-7222
▁alkol	-7223
▁verilecek	-7224
▁dür	-7225
▁kenar	-7226
▁Lisans	-7227
▁mahalle	-7228
▁özgürlük	-7229
▁bulunduğunu	-7230
▁zirv	-7231
▁hariç	-7232
ticaret	-7233
ALI	-7234
▁kons	-7235
▁yeten	-7236
▁kullanma	-7237
▁buluştur	-7238
▁geride	-7239
▁sıkı	-7240
▁konus	-7241
▁Toplam	-7242
▁çalışmalarına	-7243
▁kritik	-7244
▁muht	-7245
▁Geliştir	-7246
▁kolaylıkla	-7247
▁tiyatro	-7248
▁festiv	-7249
▁çıkması	-7250
▁anket	-7251
▁tev	-7252
▁salgın	-7253
▁bulan	-7254
ohn	-7255
▁Hey	-7256
▁okuma	-7257
▁Nit	-7258
▁anlar	-7259
▁alınacak	-7260
▁geb	-7261
▁ÖN	-7262
▁Geliş	-7263
▁edilerek	-7264
▁numaralı	-7265
▁sağlanması	-7266
▁55	-7267
▁hediy	-7268
▁Temsil	-7269
Or	-7270
Yİ	-7271
▁8.	-7272
▁His	-7273
Sen	-7274
▁1-	-7275
▁kıv	-7276
▁sesli	-7277
▁Kupası	-7278
▁aksine	-7279
▁(1)	-7280
▁peyn	-7281
lex	-7282
▁Kış	-7283
▁dönemlerde	-7284
▁köp	-7285
▁hanım	-7286
▁ömür	-7287
▁açıklamalarda	-7288
tıktan	-7289
▁Reklam	-7290
▁işyer	-7291
▁Örnek	-7292
▁pu	-7293
▁Sez	-7294
▁kızı	-7295
▁Air	-7296
▁caz	-7297
▁küç	-7298
▁çizg	-7299
▁Saf	-7300
▁Öyle	-7301
▁Hatay	-7302
▁Mimar	-7303
▁Yabancı	-7304
▁piyasası	-7305
▁saatleri	-7306
▁01	-7307
çin	-7308
▁dosya	-7309
▁güzellik	-7310
eciler	-7311
sis	-7312
▁Mo	-7313
▁Üret	-7314
▁geldiğinde	-7315
unt	-7316
▁bina	-7317
▁bizimle	-7318
__	-7319
büs	-7320
▁dö	-7321
▁Gala	-7322
▁beslen	-7323
▁evinde	-7324
▁gelerek	-7325
▁Akadem	-7326
ülür	-7327
▁konular	-7328
▁öğrenildi	-7329
▁sözü	-7330
▁Yalnız	-7331
▁sürpriz	-7332
Öz	-7333
▁Sorum	-7334
melerini	-7335
▁meyv	-7336
▁koşulları	-7337
▁hekim	-7338
ısal	-7339
ınd	-7340
▁Mi	-7341
▁albüm	-7342
▁haftada	-7343
▁uyuşturucu	-7344
lıkta	-7345
▁biliyoruz	-7346
ektif	-7347
▁öğrencileri	-7348
▁katkıda	-7349
▁sertifik	-7350
▁ka	-7351
▁Kuvvet	-7352
mes	-7353
▁açmak	-7354
▁38	-7355
umuzu	-7356
▁Oyuncu	-7357
▁Kore	-7358
▁çekir	-7359
▁kurban	-7360
enn	-7361
utma	-7362
▁Yay	-7363
TV	-7364
itler	-7365
▁bitki	-7366
▁Marmara	-7367
▁adresimi	-7368
itör	-7369
▁ker	-7370
▁log	-7371
▁dışına	-7372
kaya	-7373
lılar	-7374
melik	-7375
▁Ziraat	-7376
▁kaşığı	-7377
▁özellikler	-7378
app	-7379
▁GEL	-7380
memiz	-7381
▁mide	-7382
tiğiniz	-7383
▁ekipman	-7384
▁göstermek	-7385
▁hemş	-7386
▁evlen	-7387
);	-7388
▁PC	-7389
▁Emin	-7390
▁Seçim	-7391
▁bölgeye	-7392
▁çalışıyoruz	-7393
▁inf	-7394
▁Malz	-7395
▁kumar	-7396
liğiyle	-7397
eğinde	-7398
3.	-7399
ÖR	-7400
esun	-7401
▁Aşk	-7402
▁yaralan	-7403
▁TAR	-7404
▁parmak	-7405
EP	-7406
ult	-7407
▁damar	-7408
▁hayatın	-7409
▁boyutu	-7410
▁Göl	-7411
ATO	-7412
▁post	-7413
emiyor	-7414
tığınız	-7415
▁demokratik	-7416
▁ec	-7417
üman	-7418
▁Mor	-7419
▁yukarıda	-7420
▁Lev	-7421
▁Dijital	-7422
linik	-7423
▁hakaret	-7424
▁ihtiyacınız	-7425
▁Tamam	-7426
▁talebi	-7427
lamaları	-7428
▁katıldığı	-7429
ano	-7430
▁yağı	-7431
menize	-7432
▁sizleri	-7433
▁istanbul	-7434
▁görüntülen	-7435
ükleer	-7436
malarına	-7437
▁saati	-7438
▁yumuşak	-7439
▁adamı	-7440
▁sorunsuz	-7441
YON	-7442
ılama	-7443
▁Önemli	-7444
▁nakliye	-7445
▁koc	-7446
▁çıkma	-7447
▁Sch	-7448
▁odaklı	-7449
ee	-7450
▁OR	-7451
diven	-7452
▁düzenlediği	-7453
▁yasa	-7454
▁Toplant	-7455
çu	-7456
▁sembol	-7457
▁Komisyonu	-7458
▁yaptığını	-7459
▁Sizin	-7460
ava	-7461
▁YIL	-7462
▁ömr	-7463
▁moda	-7464
▁nis	-7465
▁yargı	-7466
▁getirdiği	-7467
duktan	-7468
▁Ven	-7469
▁hip	-7470
▁Öde	-7471
▁Üye	-7472
▁dili	-7473
▁asgari	-7474
.[	-7475
▁(4	-7476
▁fed	-7477
▁İslâm	-7478
▁şük	-7479
▁denem	-7480
▁kullanılarak	-7481
ğer	-7482
▁..	-7483
▁mm	-7484
▁tebrik	-7485
▁lan	-7486
▁kapsamda	-7487
▁İlç	-7488
▁listesi	-7489
▁onur	-7490
alısınız	-7491
▁olaylar	-7492
▁MÜ	-7493
▁tap	-7494
▁Hayır	-7495
▁görmüş	-7496
▁eşliğinde	-7497
▁yapılabilir	-7498
▁idari	-7499
▁gerekirse	-7500
▁08	-7501
▁açan	-7502
▁manevi	-7503
▁çekmek	-7504
----	-7505
▁dedik	-7506
▁rahatsızlık	-7507
aklar	-7508
▁sayg	-7509
▁ailesi	-7510
▁gördüğü	-7511
▁kamuoy	-7512
▁oluşum	-7513
▁tarihinden	-7514
▁gördüm	-7515
▁başarısız	-7516
▁seçenekler	-7517
▁arkadaşı	-7518
dön	-7519
ikol	-7520
▁Ker	-7521
suzluk	-7522
▁cerrah	-7523
▁makine	-7524
▁açıkça	-7525
▁UY	-7526
dılar	-7527
▁kemik	-7528
▁Balıkesir	-7529
▁kuralları	-7530
▁belge	-7531
▁niteliğ	-7532
▁kaynaklı	-7533
▁Geb	-7534
ky	-7535
▁etmez	-7536
II	-7537
ld	-7538
lit	-7539
-7	-7540
unlar	-7541
▁kısmında	-7542
SP	-7543
▁çocuğu	-7544
▁TEK	-7545
▁vah	-7546
▁Mesela	-7547
▁altındaki	-7548
İSİ	-7549
▁Köyü	-7550
▁istikrar	-7551
▁Jo	-7552
▁yedi	-7553
▁market	-7554
▁çıktığı	-7555
▁set	-7556
▁aracın	-7557
▁milletvekili	-7558
▁mask	-7559
▁şunu	-7560
▁Uygulam	-7561
alel	-7562
▁Whats	-7563
▁zincir	-7564
▁plastik	-7565
▁yaralandı	-7566
▁Pop	-7567
amadım	-7568
▁bekleyen	-7569
▁krem	-7570
doğ	-7571
▁olmayacak	-7572
ded	-7573
▁Tim	-7574
▁Yüksel	-7575
▁düzenlendi	-7576
▁siteye	-7577
otosiklet	-7578
▁Çiçek	-7579
▁ortada	-7580
▁gelince	-7581
ılaş	-7582
▁Sık	-7583
▁planı	-7584
▁gü	-7585
abak	-7586
▁işletmeler	-7587
▁07	-7588
▁75	-7589
leyebilirsiniz	-7590
tum	-7591
▁çaba	-7592
▁Sınıf	-7593
▁deneyimi	-7594
▁piyasada	-7595
▁And	-7596
ektaş	-7597
▁seviyede	-7598
▁kulüb	-7599
▁alanına	-7600
▁tehlikeli	-7601
▁vefat	-7602
▁kilometre	-7603
▁nakit	-7604
▁ayrıntılı	-7605
▁ı	-7606
▁tüc	-7607
▁mail	-7608
▁şeye	-7609
▁komut	-7610
çilerin	-7611
ELİ	-7612
▁cinayet	-7613
▁değişken	-7614
lub	-7615
▁por	-7616
▁hakkındaki	-7617
▁toplantısında	-7618
▁sözleri	-7619
mat	-7620
▁dan	-7621
▁ettiğiniz	-7622
▁geliştirme	-7623
▁Öğretim	-7624
raç	-7625
eryal	-7626
▁günah	-7627
▁tamamı	-7628
▁yumurta	-7629
▁İspanya	-7630
İs	-7631
rist	-7632
▁ihal	-7633
üphan	-7634
▁arasına	-7635
▁büyüy	-7636
▁bıçak	-7637
DIR	-7638
▁gösterg	-7639
▁vermesi	-7640
▁sitesinin	-7641
▁rezervasyon	-7642
▁SEO	-7643
▁Soru	-7644
▁unutmayın	-7645
▁olmasıdır	-7646
▁Siyah	-7647
▁Trans	-7648
ülasyon	-7649
▁görevl	-7650
▁çapında	-7651
▁orijinal	-7652
▁firmaları	-7653
▁beğ	-7654
▁endüstr	-7655
▁tarafında	-7656
▁Havalimanı	-7657
▁bekliyoruz	-7658
▁Seb	-7659
▁Bazen	-7660
▁tamir	-7661
▁başladığı	-7662
▁kırık	-7663
▁Mek	-7664
▁bölün	-7665
elisiniz	-7666
▁fuar	-7667
▁mülk	-7668
▁BU	-7669
▁kısmını	-7670
▁canlandır	-7671
▁döndü	-7672
▁danışman	-7673
parta	-7674
▁düzgün	-7675
has	-7676
▁lek	-7677
▁Sim	-7678
▁List	-7679
▁uyku	-7680
▁maksimum	-7681
ığa	-7682
ohum	-7683
▁Bana	-7684
▁dolara	-7685
▁zamanlı	-7686
▁kampanya	-7687
▁tarzı	-7688
▁galibiyet	-7689
İNİ	-7690
ikal	-7691
maraş	-7692
▁ölçek	-7693
Ad	-7694
TL	-7695
ılış	-7696
▁Ermen	-7697
▁ila	-7698
▁Sektör	-7699
▁tüketic	-7700
eten	-7701
ENİ	-7702
▁şok	-7703
iyeli	-7704
▁gelişen	-7705
▁IŞ	-7706
eydi	-7707
sü	-7708
INA	-7709
▁ülkeye	-7710
atlı	-7711
▁Emir	-7712
▁Işık	-7713
▁içinden	-7714
▁kendimi	-7715
▁mekaniz	-7716
▁Çam	-7717
▁Borsa	-7718
▁liste	-7719
Hay	-7720
▁vel	-7721
▁olmuyor	-7722
laşması	-7723
▁ulaştı	-7724
▁Anne	-7725
▁birine	-7726
▁okumak	-7727
▁Kör	-7728
▁bakalım	-7729
▁gidecek	-7730
▁depolama	-7731
▁Roma	-7732
▁değilim	-7733
▁teknolojik	-7734
▁milletvekil	-7735
▁KAY	-7736
▁koleksiyon	-7737
▁İp	-7738
▁Vüc	-7739
▁satışı	-7740
▁Komutan	-7741
▁öğrencilere	-7742
amanız	-7743
▁yerleri	-7744
FA	-7745
▁verg	-7746
▁testi	-7747
▁Mir	-7748
▁koordin	-7749
▁almıştır	-7750
▁Gr	-7751
▁açma	-7752
▁anlaşma	-7753
▁gösterdiği	-7754
ât	-7755
Yeni	-7756
▁Def	-7757
▁nez	-7758
▁mavi	-7759
▁seri	-7760
portaj	-7761
▁Hastalık	-7762
▁günleri	-7763
▁sakat	-7764
▁bunlara	-7765
medik	-7766
▁bilgilerini	-7767
▁dans	-7768
▁fen	-7769
▁kriter	-7770
▁sitede	-7771
itasyon	-7772
▁uzaktan	-7773
▁sürük	-7774
▁Uygun	-7775
▁Elbette	-7776
ERS	-7777
▁tepk	-7778
▁banyo	-7779
▁yazın	-7780
▁Galaxy	-7781
İstanbul	-7782
▁fet	-7783
▁olanı	-7784
▁kaldığı	-7785
elli	-7786
▁sahne	-7787
GB	-7788
▁çeş	-7789
▁Ajansı	-7790
▁egzersiz	-7791
mu	-7792
▁39	-7793
▁Dal	-7794
esince	-7795
▁yeterince	-7796
larımızla	-7797
▁Görüş	-7798
▁görüşme	-7799
▁DEĞ	-7800
▁Size	-7801
▁bulaş	-7802
▁geliştirmek	-7803
▁Boğaz	-7804
ish	-7805
adın	-7806
▁Halil	-7807
▁Akıllı	-7808
▁sistemini	-7809
▁pen	-7810
pp	-7811
▁sün	-7812
press	-7813
▁efsan	-7814
▁taksit	-7815
▁DA	-7816
▁Bavul	-7817
▁Korum	-7818
▁ahşap	-7819
▁Eg	-7820
▁kontrolü	-7821
▁şirketler	-7822
▁bilmiyorum	-7823
▁tutmak	-7824
▁Kem	-7825
▁esk	-7826
▁hattı	-7827
▁keşfet	-7828
▁Japonya	-7829
▁Edebiyat	-7830
▁Ruh	-7831
▁gıd	-7832
ılmak	-7833
▁mesajı	-7834
▁Ka	-7835
▁Kanal	-7836
▁Bülent	-7837
▁adıyla	-7838
▁şüpheli	-7839
▁olduğunun	-7840
oks	-7841
▁direkt	-7842
▁getiriyor	-7843
Gen	-7844
▁arıyor	-7845
▁isterim	-7846
▁olmakla	-7847
yurt	-7848
▁250	-7849
resyon	-7850
▁kayıtlı	-7851
▁aksesuar	-7852
▁yal	-7853
▁tanık	-7854
In	-7855
abilme	-7856
GS	-7857
▁doğan	-7858
▁gereklidir	-7859
amızı	-7860
iller	-7861
▁Tesis	-7862
▁dinamik	-7863
▁başlamak	-7864
▁irti	-7865
lılığı	-7866
▁mahkeme	-7867
▁yardımıyla	-7868
▁örneği	-7869
çileri	-7870
▁harcam	-7871
▁Eğitimi	-7872
▁ülkelerde	-7873
▁dâh	-7874
▁olsay	-7875
▁yargılan	-7876
▁bildirildi	-7877
▁yav	-7878
▁tutum	-7879
▁dönemin	-7880
▁değişikliği	-7881
▁kamyon	-7882
▁Doğum	-7883
▁Kork	-7884
▁esnek	-7885
▁etkileri	-7886
▁John	-7887
malara	-7888
▁bahar	-7889
▁yılına	-7890
▁istenen	-7891
▁vurgulayan	-7892
▁AÇ	-7893
▁kombin	-7894
▁yaşamını	-7895
▁ailen	-7896
▁Hollanda	-7897
▁**	-7898
▁06	-7899
▁farkında	-7900
▁yansı	-7901
▁Dub	-7902
▁evren	-7903
▁derken	-7904
▁geleceği	-7905
▁Tep	-7906
▁büyüt	-7907
▁Başvuru	-7908
▁değişen	-7909
▁zararlı	-7910
▁Ulu	-7911
▁karın	-7912
▁Haft	-7913
talyan	-7914
▁dernek	-7915
▁önlemek	-7916
▁yönetmen	-7917
engiz	-7918
▁Afgan	-7919
▁aşkın	-7920
▁ırk	-7921
▁içeri	-7922
▁tanıy	-7923
TT	-7924
▁prens	-7925
tikleri	-7926
▁randev	-7927
▁yatırımcılar	-7928
ence	-7929
▁seçin	-7930
DV	-7931
▁Bors	-7932
▁çıkarmak	-7933
',	-7934
lari	-7935
▁Herhangi	-7936
▁protein	-7937
ps	-7938
inizden	-7939
▁yardımı	-7940
▁misiniz	-7941
▁Meslek	-7942
▁Col	-7943
▁vaka	-7944
▁giyim	-7945
▁mektup	-7946
ILI	-7947
▁Motor	-7948
▁annesi	-7949
dıklarını	-7950
ocuğ	-7951
▁saatte	-7952
ongul	-7953
GK	-7954
▁Suç	-7955
DİR	-7956
▁GÖR	-7957
▁devir	-7958
▁tarihine	-7959
▁kafa	-7960
▁daima	-7961
lendiği	-7962
▁Valisi	-7963
▁getirilen	-7964
▁deri	-7965
▁Del	-7966
▁lik	-7967
▁Anal	-7968
▁olurken	-7969
▁kalabalık	-7970
▁som	-7971
▁İnsanlar	-7972
▁işleme	-7973
▁duruyor	-7974
Allah	-7975
dirim	-7976
▁stres	-7977
▁Kampan	-7978
▁sonsuz	-7979
▁Festivali	-7980
cük	-7981
▁2-	-7982
cıya	-7983
▁Öztürk	-7984
onguldak	-7985
▁Sup	-7986
ıyaman	-7987
tiğim	-7988
▁ısıt	-7989
operatif	-7990
vin	-7991
▁Hac	-7992
▁sinema	-7993
▁İr	-7994
ance	-7995
▁almayı	-7996
▁değerleri	-7997
▁konferans	-7998
▁deplasman	-7999
▁Oğuz	-8000
▁omuz	-8001
tip	-8002
▁Bes	-8003
▁arız	-8004
▁karmaşık	-8005
▁programları	-8006
DP	-8007
▁rengi	-8008
▁organize	-8009
uşu	-8010
▁mit	-8011
▁kiralama	-8012
▁Roman	-8013
▁birinc	-8014
▁Tiyatro	-8015
▁arkasında	-8016
▁olmasının	-8017
▁arkadaşlık	-8018
▁GB	-8019
▁Yun	-8020
▁altyapı	-8021
▁Normal	-8022
▁bilgilerin	-8023
▁Home	-8024
▁Davut	-8025
▁Çeşit	-8026
▁insana	-8027
▁takımın	-8028
SS	-8029
Gün	-8030
ezil	-8031
▁araçlar	-8032
▁örgütün	-8033
▁Teknoloj	-8034
▁diliyorum	-8035
larımı	-8036
▁ith	-8037
▁bakımı	-8038
▁haberine	-8039
▁aşamasında	-8040
eyt	-8041
▁karşılığında	-8042
▁Hakları	-8043
▁hayatına	-8044
▁İht	-8045
▁skor	-8046
▁Yavuz	-8047
▁İçerik	-8048
▁olmuştu	-8049
▁sistemine	-8050
AÇ	-8051
CE	-8052
tıklarını	-8053
▁sizlerle	-8054
▁inşallah	-8055
CEL	-8056
▁rüy	-8057
▁bomb	-8058
alılar	-8059
▁imzal	-8060
▁ex	-8061
anma	-8062
▁yoğ	-8063
▁bizler	-8064
▁etkiler	-8065
▁faaliyetleri	-8066
▁ayrım	-8067
ımızdan	-8068
▁yükümlül	-8069
lıyorum	-8070
21	-8071
▁ahlak	-8072
▁dolandır	-8073
▁adımı	-8074
▁Herkes	-8075
▁eşyalar	-8076
▁yılları	-8077
▁05	-8078
▁lüks	-8079
▁hızlandır	-8080
▁tay	-8081
▁sıklıkla	-8082
▁Takip	-8083
▁işletim	-8084
▁04	-8085
▁Karaman	-8086
losuz	-8087
▁Pap	-8088
▁dua	-8089
▁kalıp	-8090
▁sistemin	-8091
▁olursunuz	-8092
▁sö	-8093
ebilm	-8094
ıköy	-8095
▁ısın	-8096
▁eşlik	-8097
layabilirsiniz	-8098
atörü	-8099
▁abon	-8100
outube	-8101
ion	-8102
ünce	-8103
▁Num	-8104
abrika	-8105
▁şehri	-8106
▁ikin	-8107
denin	-8108
▁nesn	-8109
▁masaj	-8110
▁ekstra	-8111
▁görülmektedir	-8112
▁hizmete	-8113
ekom	-8114
▁etiket	-8115
âm	-8116
▁Alev	-8117
▁Konut	-8118
▁inanılmaz	-8119
▁zehir	-8120
OG	-8121
▁kısaca	-8122
▁karanlık	-8123
▁com	-8124
SY	-8125
▁Çer	-8126
ınızdan	-8127
▁kalıyor	-8128
▁toplantısı	-8129
▁BEL	-8130
▁lit	-8131
▁stok	-8132
▁gerçekleşti	-8133
link	-8134
onsor	-8135
▁geçirmek	-8136
LEN	-8137
akar	-8138
▁yakıt	-8139
▁egemen	-8140
▁Müzesi	-8141
▁10.	-8142
▁Başak	-8143
desi	-8144
▁İYİ	-8145
▁öğrenme	-8146
mediğini	-8147
▁oynanan	-8148
▁milyonlarca	-8149
▁Abdül	-8150
▁poker	-8151
unc	-8152
türü	-8153
▁con	-8154
▁yürütülen	-8155
BA	-8156
▁Sn	-8157
luğa	-8158
▁özet	-8159
▁minimum	-8160
▁broker	-8161
RET	-8162
▁Nih	-8163
ülecek	-8164
imini	-8165
▁neticesinde	-8166
▁çizgi	-8167
ülüyor	-8168
▁konul	-8169
▁Giresun	-8170
▁haftalık	-8171
▁hayatında	-8172
▁payı	-8173
▁geçmek	-8174
▁arttı	-8175
▁raporu	-8176
▁yararlı	-8177
▁Bize	-8178
ux	-8179
▁evine	-8180
▁çözümler	-8181
föy	-8182
▁müh	-8183
dığına	-8184
▁Geçmiş	-8185
▁bitcoin	-8186
▁konuya	-8187
PG	-8188
▁geldik	-8189
▁yaşandı	-8190
stil	-8191
İNDE	-8192
▁Dis	-8193
▁kör	-8194
▁doğa	-8195
▁Hafta	-8196
▁dâhil	-8197
▁işlemlerini	-8198
▁Hiçbir	-8199
pınar	-8200
▁duygusal	-8201
tığım	-8202
▁borsa	-8203
▁anlamlı	-8204
▁görülüyor	-8205
▁sahipliği	-8206
??	-8207
▁silahlı	-8208
▁çocuklara	-8209
▁coş	-8210
amadığı	-8211
▁şansı	-8212
▁Kaymakam	-8213
▁Afyon	-8214
şak	-8215
▁istifa	-8216
▁Ağr	-8217
▁sitesine	-8218
▁uygulamaya	-8219
▁Rabb	-8220
▁doğur	-8221
▁görülür	-8222
▁ortasında	-8223
▁maliyeti	-8224
▁yükseldi	-8225
▁özgü	-8226
▁çabuk	-8227
▁Kripto	-8228
▁yaprak	-8229
▁izlemek	-8230
▁sürdürülebilir	-8231
madık	-8232
▁sektörde	-8233
haber	-8234
▁Alış	-8235
▁taze	-8236
▁Çavuş	-8237
▁cennet	-8238
▁parayı	-8239
▁edecektir	-8240
▁oyuncular	-8241
ame	-8242
▁th	-8243
▁ülkemizin	-8244
▁Hanım	-8245
tığında	-8246
▁geldiğ	-8247
▁kendinize	-8248
▁taahh	-8249
▁istedim	-8250
ura	-8251
▁Chat	-8252
▁slog	-8253
▁Satın	-8254
aydı	-8255
▁Tanrı	-8256
laştırma	-8257
▁dünyayı	-8258
iner	-8259
▁detayları	-8260
▁Hedef	-8261
adığım	-8262
▁anlaşıl	-8263
▁ilişkileri	-8264
▁03	-8265
▁eşsiz	-8266
Ne	-8267
▁niş	-8268
▁hakem	-8269
ülmüş	-8270
BB	-8271
vi	-8272
▁Hur	-8273
▁verilmektedir	-8274
▁sa	-8275
▁Kud	-8276
▁Ulaş	-8277
▁limit	-8278
▁Arslan	-8279
ırsınız	-8280
▁hastaneye	-8281
▁kendileri	-8282
orit	-8283
▁vatan	-8284
▁kalmak	-8285
▁beraberinde	-8286
abileceğ	-8287
ree	-8288
▁KK	-8289
▁sesi	-8290
üğün	-8291
▁sir	-8292
▁Yalçın	-8293
madım	-8294
ildiğinde	-8295
cuz	-8296
dun	-8297
SB	-8298
udu	-8299
▁yakış	-8300
▁sevgili	-8301
▁asit	-8302
ecekler	-8303
▁musunuz	-8304
▁kaynakları	-8305
▁sön	-8306
ijyen	-8307
▁Yargı	-8308
▁Çetin	-8309
▁Detay	-8310
▁kurulum	-8311
▁seviyesi	-8312
▁Kahramanmaraş	-8313
▁tıbbi	-8314
▁örneğin	-8315
bit	-8316
row	-8317
▁Evde	-8318
▁NATO	-8319
▁hükm	-8320
▁pahalı	-8321
lemiş	-8322
▁onunla	-8323
amıyorum	-8324
▁Kırmızı	-8325
▁taşıyor	-8326
mis	-8327
amıza	-8328
▁Rize	-8329
▁çekin	-8330
▁anlamında	-8331
ilirken	-8332
ekler	-8333
▁ortamı	-8334
▁düşündüğ	-8335
▁yolunu	-8336
▁paylaştı	-8337
FT	-8338
▁krizi	-8339
▁geriye	-8340
▁teklifi	-8341
▁yapılandır	-8342
artman	-8343
▁Saray	-8344
▁buton	-8345
▁fazlası	-8346
▁02	-8347
▁projenin	-8348
Ak	-8349
▁lak	-8350
▁tef	-8351
lıktan	-8352
▁cemaat	-8353
▁girmek	-8354
▁yorgun	-8355
gur	-8356
yet	-8357
▁kurumlar	-8358
▁stratejik	-8359
lament	-8360
▁9.	-8361
▁çak	-8362
▁sinem	-8363
▁birşey	-8364
▁çözümü	-8365
▁materyal	-8366
▁alanlarında	-8367
▁izl	-8368
▁üyeler	-8369
kale	-8370
▁görevini	-8371
▁istediğini	-8372
▁Bolu	-8373
▁eğlence	-8374
▁dayanıklı	-8375
▁kendisinin	-8376
▁iman	-8377
▁motiv	-8378
▁akademik	-8379
▁He	-8380
çılar	-8381
▁evrak	-8382
lığından	-8383
▁yerlere	-8384
▁Mücadele	-8385
faf	-8386
anta	-8387
▁evi	-8388
▁Unut	-8389
▁çalıştığı	-8390
▁DEV	-8391
▁inç	-8392
▁evin	-8393
▁Acil	-8394
▁Sokak	-8395
mamalıdır	-8396
▁yorumları	-8397
mac	-8398
▁Koc	-8399
ebilirler	-8400
▁uyarınca	-8401
▁Aslan	-8402
▁Uzmanı	-8403
▁olacağız	-8404
▁görebilirsiniz	-8405
ucusu	-8406
alarıyla	-8407
El	-8408
▁Kıy	-8409
▁müj	-8410
▁ihraç	-8411
▁aldığını	-8412
▁verin	-8413
▁okundu	-8414
▁adımlar	-8415
▁diyorum	-8416
▁konuları	-8417
BUL	-8418
▁maske	-8419
ste	-8420
gazi	-8421
▁sad	-8422
▁Durum	-8423
▁çerez	-8424
LEM	-8425
▁Hacı	-8426
▁dizisi	-8427
▁Kartal	-8428
▁stratejisi	-8429
cell	-8430
▁Suudi	-8431
▁turnuv	-8432
▁teminat	-8433
▁direnç	-8434
▁Politikası	-8435
▁ayakta	-8436
▁sağladığı	-8437
▁kullanmaya	-8438
▁Edin	-8439
▁hadis	-8440
▁Sıcak	-8441
▁şeyden	-8442
▁aşağ	-8443
▁gücünü	-8444
▁Pay	-8445
▁bedeli	-8446
▁anlatıyor	-8447
▁Yum	-8448
müyor	-8449
▁ocak	-8450
▁Alanya	-8451
▁Şikayet	-8452
▁yetişkin	-8453
▁istatistik	-8454
abi	-8455
kas	-8456
▁GEN	-8457
▁horm	-8458
▁işveren	-8459
▁sitemiz	-8460
▁hareketli	-8461
/24	-8462
▁çel	-8463
tadoğu	-8464
▁biliyorum	-8465
▁şirketlerin	-8466
▁merkezli	-8467
ünür	-8468
▁tarifi	-8469
edeniyet	-8470
▁3'	-8471
lusu	-8472
▁Keş	-8473
▁vic	-8474
irdağ	-8475
▁müst	-8476
▁bilinc	-8477
▁oynayan	-8478
▁Oku	-8479
▁ikisi	-8480
▁sektörünün	-8481
▁yaptığınız	-8482
IP	-8483
▁1'	-8484
▁vasıt	-8485
▁çıkmak	-8486
▁İtalyan	-8487
▁verdim	-8488
▁gününde	-8489
▁yapmaktadır	-8490
▁Binomo	-8491
▁noktaya	-8492
▁daire	-8493
▁2'	-8494
▁sof	-8495
▁oturum	-8496
▁sahipleri	-8497
,"	-8498
rit	-8499
▁İnan	-8500
▁Görünt	-8501
▁yaşama	-8502
▁kullanın	-8503
▁Genellikle	-8504
▁muhtemelen	-8505
udak	-8506
▁kuy	-8507
ımdan	-8508
▁Öğrenci	-8509
▁Ekonomik	-8510
▁Ada	-8511
▁Kel	-8512
▁zul	-8513
▁kucak	-8514
▁durumlar	-8515
▁Ülkemizde	-8516
▁Red	-8517
▁Silah	-8518
▁analizi	-8519
ladığımız	-8520
eveyn	-8521
▁sahte	-8522
▁varsay	-8523
▁düşünür	-8524
iyorsunuz	-8525
▁halkının	-8526
gut	-8527
rid	-8528
tük	-8529
▁kayd	-8530
▁gümüş	-8531
▁sayısını	-8532
▁vitamini	-8533
enf	-8534
▁hid	-8535
▁evvel	-8536
▁detaylar	-8537
-12	-8538
rand	-8539
▁senar	-8540
▁dışındaki	-8541
▁merkezine	-8542
EST	-8543
luğunu	-8544
▁beklet	-8545
▁büyüklüğ	-8546
▁vurguladı	-8547
▁tör	-8548
▁Sinan	-8549
))	-8550
sör	-8551
amaktadır	-8552
▁kaydeden	-8553
Sİ	-8554
▁görevlendir	-8555
lî	-8556
kenti	-8557
▁Kesin	-8558
▁alınmış	-8559
▁veriyoruz	-8560
▁Git	-8561
▁yürek	-8562
▁diplom	-8563
▁Fen	-8564
▁bunlardan	-8565
▁odaklan	-8566
▁sıcaklık	-8567
▁maden	-8568
▁çıkıp	-8569
▁bizzat	-8570
oter	-8571
▁yoksul	-8572
▁Çocuklar	-8573
▁görevli	-8574
elif	-8575
▁topu	-8576
▁getirir	-8577
▁çıkarak	-8578
▁soruları	-8579
▁Yanıt	-8580
▁zorlu	-8581
▁Hoc	-8582
▁dağıtım	-8583
▁karşılıklı	-8584
amin	-8585
▁Zar	-8586
▁Arda	-8587
▁Burak	-8588
▁Yaşar	-8589
▁budur	-8590
▁Bulgar	-8591
▁HAK	-8592
umuza	-8593
▁Kars	-8594
▁Dayan	-8595
▁yakalandı	-8596
▁gerçekleştirdi	-8597
OJ	-8598
▁Fi	-8599
▁yur	-8600
▁sisteme	-8601
eysel	-8602
▁nazar	-8603
▁Pa	-8604
▁biber	-8605
ilmek	-8606
▁buyur	-8607
uyorlar	-8608
▁arayış	-8609
▁vadede	-8610
▁onlarca	-8611
▁oluşturulan	-8612
çilik	-8613
▁karşısına	-8614
▁bilmek	-8615
▁Modern	-8616
▁bölgesi	-8617
▁estetik	-8618
▁yayınlandı	-8619
▁Test	-8620
▁Üretim	-8621
▁önemlisi	-8622
▁Boş	-8623
▁yapacağız	-8624
metik	-8625
▁isimler	-8626
▁başladım	-8627
▁korunması	-8628
Pro	-8629
▁YAZ	-8630
▁sunucu	-8631
▁kalacak	-8632
▁itibarıyla	-8633
▁tabl	-8634
yim	-8635
▁cevab	-8636
▁malzemeleri	-8637
ndaki	-8638
▁verdik	-8639
▁yazarı	-8640
▁zamandır	-8641
nü	-8642
yaş	-8643
▁(5	-8644
▁ölçüm	-8645
▁Türkmen	-8646
▁uzaklaş	-8647
hid	-8648
▁delik	-8649
duğunda	-8650
▁Adıyaman	-8651
orld	-8652
tihar	-8653
▁kadros	-8654
▁Teşekkür	-8655
anıp	-8656
▁tavuk	-8657
▁dediği	-8658
▁mim	-8659
ığını	-8660
▁şiddetli	-8661
▁eğilim	-8662
▁Kullanım	-8663
▁demokrasi	-8664
▁değişiklikler	-8665
▁zamanla	-8666
▁Oda	-8667
▁Kerim	-8668
▁ziyade	-8669
22	-8670
▁Çank	-8671
▁bulur	-8672
▁Birinci	-8673
▁ortamında	-8674
▁1,	-8675
▁tey	-8676
▁bildirim	-8677
dil	-8678
ymp	-8679
▁ötürü	-8680
mamıştır	-8681
▁gönüllü	-8682
▁Arabistan	-8683
cuk	-8684
▁sokağa	-8685
▁çıkardı	-8686
mad	-8687
▁Sağlığı	-8688
▁başından	-8689
▁Ob	-8690
ümin	-8691
▁denilen	-8692
▁Personel	-8693
▁projeleri	-8694
▁fıkr	-8695
▁bağırsak	-8696
kul	-8697
▁erkekler	-8698
ışlı	-8699
▁talimat	-8700
▁tartışma	-8701
▁elektrikli	-8702
▁yapılmıştır	-8703
▁Koş	-8704
▁Dönüş	-8705
▁Kalit	-8706
▁türleri	-8707
mız	-8708
▁Aziz	-8709
▁nitelikli	-8710
▁47	-8711
▁Moda	-8712
▁Star	-8713
▁ceph	-8714
▁Kolay	-8715
▁anlık	-8716
ÜŞ	-8717
▁Soğ	-8718
▁Bakım	-8719
▁İstik	-8720
▁dondur	-8721
▁hedefi	-8722
▁bölümde	-8723
▁Veri	-8724
▁sanık	-8725
▁Dergisi	-8726
▁kullanılmak	-8727
▁planda	-8728
yası	-8729
▁Adı	-8730
▁KAD	-8731
▁dör	-8732
▁Stratej	-8733
▁güncellem	-8734
▁mol	-8735
▁Ucuz	-8736
▁istasyon	-8737
set	-8738
▁konse	-8739
ike	-8740
▁Düzce	-8741
▁müzak	-8742
▁montaj	-8743
▁memnuniyet	-8744
UB	-8745
▁akım	-8746
▁teker	-8747
▁seçilen	-8748
▁gib	-8749
▁Kurumsal	-8750
▁Koronavirüs	-8751
ORUM	-8752
▁VAR	-8753
▁ihale	-8754
▁getirildi	-8755
▁topar	-8756
▁Bonus	-8757
▁olmazsa	-8758
▁Avustral	-8759
▁halı	-8760
▁kalma	-8761
▁disiplin	-8762
▁sorunların	-8763
otiv	-8764
lenerek	-8765
▁vitamin	-8766
▁yaptırım	-8767
▁sunuyoruz	-8768
▁dert	-8769
FF	-8770
göz	-8771
▁Tuz	-8772
▁hek	-8773
iğeri	-8774
lilerin	-8775
mıyorum	-8776
▁yıldan	-8777
▁varlığı	-8778
▁hesabından	-8779
▁raf	-8780
▁Çorum	-8781
▁bizden	-8782
berg	-8783
isti	-8784
▁ettiğimiz	-8785
çası	-8786
astam	-8787
faiye	-8788
▁IŞİD	-8789
▁icin	-8790
▁direk	-8791
▁işten	-8792
▁Qu	-8793
▁Gay	-8794
▁USD	-8795
▁tren	-8796
▁oluşturur	-8797
▁evr	-8798
▁sürdürüyor	-8799
▁Dam	-8800
▁Adet	-8801
▁gündüz	-8802
maktır	-8803
▁olurdu	-8804
▁Zonguldak	-8805
atch	-8806
▁Isparta	-8807
▁tl	-8808
▁kavg	-8809
masyon	-8810
omi	-8811
▁öf	-8812
ANBUL	-8813
▁izleme	-8814
▁tarafı	-8815
atür	-8816
▁göze	-8817
ılırken	-8818
ebileceğini	-8819
▁EUR	-8820
luğun	-8821
malıyız	-8822
▁Lütfen	-8823
▁Pi	-8824
▁%100	-8825
▁Takımı	-8826
▁dostu	-8827
▁Bunlardan	-8828
▁seviyesine	-8829
▁cevabı	-8830
▁Kadir	-8831
▁pilot	-8832
▁senedi	-8833
tiğinde	-8834
▁mecbur	-8835
▁topluluk	-8836
udum	-8837
▁madenc	-8838
▁Siteleri	-8839
lini	-8840
▁Stad	-8841
▁Batman	-8842
▁Böylelikle	-8843
Cİ	-8844
▁Ayr	-8845
onlar	-8846
▁Çoğu	-8847
▁referans	-8848
▁Arama	-8849
▁koruyucu	-8850
▁verilmiştir	-8851
vil	-8852
▁otop	-8853
▁sahil	-8854
▁sınırları	-8855
▁firmaların	-8856
▁AM	-8857
▁Dok	-8858
▁Büyükel	-8859
▁bilmiyor	-8860
unum	-8861
▁Kardeş	-8862
▁festival	-8863
ALAR	-8864
▁bozukluk	-8865
▁içerisine	-8866
▁forma	-8867
▁haric	-8868
▁satır	-8869
▁demo	-8870
▁zamana	-8871
▁kararlar	-8872
▁şimdiden	-8873
ındık	-8874
▁ihmal	-8875
▁tutun	-8876
▁laf	-8877
▁stil	-8878
▁yazdı	-8879
▁ithalat	-8880
▁vermeden	-8881
▁imam	-8882
23	-8883
▁Mahmut	-8884
▁eleman	-8885
▁verilmiş	-8886
amın	-8887
▁koz	-8888
antin	-8889
▁üzeri	-8890
▁kullanır	-8891
▁protesto	-8892
burg	-8893
▁Rob	-8894
ometr	-8895
▁Daire	-8896
▁endeks	-8897
ower	-8898
▁kel	-8899
SAN	-8900
iver	-8901
▁köken	-8902
▁verilerin	-8903
yn	-8904
fendi	-8905
▁Koruma	-8906
▁Gerekli	-8907
▁firmanın	-8908
lamada	-8909
▁Kurtul	-8910
▁teknolojisi	-8911
ÖL	-8912
▁konuyla	-8913
▁Ortadoğu	-8914
▁120	-8915
▁dilim	-8916
▁etrafında	-8917
.(	-8918
▁bırakın	-8919
▁etkileyen	-8920
▁Makin	-8921
▁yemeği	-8922
▁ittifak	-8923
MET	-8924
▁işini	-8925
▁bizleri	-8926
▁bununla	-8927
4.	-8928
▁OK	-8929
▁Gec	-8930
▁Zam	-8931
▁sendik	-8932
▁bölgenin	-8933
▁Blu	-8934
▁Harit	-8935
▁paralel	-8936
IC	-8937
▁TH	-8938
asus	-8939
▁geçerek	-8940
emem	-8941
▁yapay	-8942
▁Örgütü	-8943
OD	-8944
içi	-8945
▁Bos	-8946
▁Onur	-8947
▁mesafe	-8948
▁tamamladı	-8949
azz	-8950
▁arzu	-8951
▁Mardin	-8952
)'	-8953
▁öv	-8954
▁Dan	-8955
▁hareketi	-8956
▁reng	-8957
▁Sc	-8958
▁ch	-8959
▁kül	-8960
▁Edit	-8961
▁keşfed	-8962
▁yansım	-8963
▁Devleti	-8964
▁etkisini	-8965
▁konaklama	-8966
lic	-8967
▁Güvenilir	-8968
▁olağanüstü	-8969
▁başlamıştır	-8970
▁sizden	-8971
▁Gerçekten	-8972
▁ilerleyen	-8973
▁Zeytin	-8974
▁Dağı	-8975
elikop	-8976
inizle	-8977
▁edenler	-8978
▁Sonraki	-8979
▁basıl	-8980
▁anlayışı	-8981
asıdır	-8982
▁toplamda	-8983
obi	-8984
▁elinden	-8985
App	-8986
▁yuvar	-8987
layınız	-8988
▁tescil	-8989
▁Seyahat	-8990
▁Enstitüsü	-8991
iriz	-8992
culuk	-8993
RAM	-8994
Tek	-8995
▁bulut	-8996
▁Başsav	-8997
▁çeşitleri	-8998
▁sürü	-8999
▁yoluna	-9000
▁sh	-9001
▁tabir	-9002
▁artması	-9003
▁gelebilir	-9004
▁Üniversite	-9005
birliği	-9006
▁atılan	-9007
▁siyasal	-9008
ydi	-9009
▁özgün	-9010
▁paylaşmak	-9011
▁Feth	-9012
▁Selim	-9013
▁kılın	-9014
▁radyo	-9015
▁ın	-9016
▁iştir	-9017
▁söylemiş	-9018
ladığını	-9019
ubu	-9020
▁46	-9021
akende	-9022
▁Hükümet	-9023
▁eyalet	-9024
▁kullanıcıları	-9025
gresi	-9026
▁filmin	-9027
▁ambalaj	-9028
▁Hürriyet	-9029
▁lezzetli	-9030
▁karşılığı	-9031
▁şaş	-9032
▁Baba	-9033
▁komşu	-9034
▁gerçeği	-9035
▁yurtdış	-9036
asebe	-9037
▁Beni	-9038
▁kaydı	-9039
▁Çocuğ	-9040
▁43	-9041
▁ajans	-9042
▁600	-9043
▁nereye	-9044
işe	-9045
odu	-9046
▁42	-9047
▁iktid	-9048
▁olayları	-9049
▁yerleşim	-9050
dere	-9051
▁çatı	-9052
▁Erdem	-9053
▁belirgin	-9054
▁ediyorlar	-9055
▁hayli	-9056
▁periy	-9057
▁IP	-9058
▁SAN	-9059
▁Teb	-9060
düncü	-9061
▁metr	-9062
▁Efend	-9063
▁baştan	-9064
▁açılması	-9065
ĞİT	-9066
uyordu	-9067
▁Dönem	-9068
▁sıral	-9069
▁aşamada	-9070
▁İZ	-9071
ington	-9072
liğinden	-9073
▁ederler	-9074
▁gönderilen	-9075
▁düzenlenecek	-9076
▁Nil	-9077
▁rom	-9078
▁şahit	-9079
ılmaya	-9080
▁tetik	-9081
ilecektir	-9082
ula	-9083
ekili	-9084
▁izni	-9085
▁hikây	-9086
▁okula	-9087
▁ısrar	-9088
ebir	-9089
▁yuv	-9090
▁with	-9091
xt	-9092
sever	-9093
bakanı	-9094
▁Salih	-9095
İLİ	-9096
▁Alp	-9097
▁ima	-9098
▁Hoca	-9099
▁yayımlanan	-9100
▁üyelerinin	-9101
▁Bayrak	-9102
▁deneyimli	-9103
▁olabiliyor	-9104
▁çevresinde	-9105
▁bakıldığında	-9106
▁seyr	-9107
▁Gönderen	-9108
▁inanıyorum	-9109
▁artırmak	-9110
▁dünyasında	-9111
▁göstergesi	-9112
▁gerekçesiyle	-9113
▁artıyor	-9114
MAK	-9115
feri	-9116
▁nöbet	-9117
▁duyduğu	-9118
▁başlattı	-9119
▁mesafede	-9120
▁yapacağı	-9121
▁dahilinde	-9122
lunun	-9123
▁devre	-9124
▁oynat	-9125
▁doktora	-9126
win	-9127
antol	-9128
▁Aday	-9129
▁Tanıt	-9130
Tr	-9131
▁Zeyn	-9132
▁ikna	-9133
▁atmos	-9134
▁aittir	-9135
abol	-9136
▁küf	-9137
▁boya	-9138
▁sıradan	-9139
aiz	-9140
▁you	-9141
▁euro	-9142
▁Cengiz	-9143
▁dükkan	-9144
lemektedir	-9145
▁yazdığı	-9146
▁Kalkınma	-9147
▁sözlerine	-9148
▁Özdemir	-9149
▁süresince	-9150
ass	-9151
▁Gece	-9152
▁akla	-9153
▁kanat	-9154
▁Bür	-9155
▁sul	-9156
▁borc	-9157
▁Tüket	-9158
▁dönüm	-9159
▁tohum	-9160
▁söyler	-9161
▁avantajlı	-9162
aport	-9163
▁hurda	-9164
▁ismini	-9165
▁eline	-9166
▁hastane	-9167
▁gelecekte	-9168
ÜY	-9169
ald	-9170
yeri	-9171
▁fikr	-9172
unç	-9173
▁elbis	-9174
▁mahal	-9175
▁tazminat	-9176
▁çalışanları	-9177
▁açıklamasında	-9178
▁böyl	-9179
acaklar	-9180
▁eks	-9181
▁kutu	-9182
▁uzay	-9183
▁Sesli	-9184
▁sığ	-9185
▁Dairesi	-9186
leyebilir	-9187
▁Sayf	-9188
▁Biraz	-9189
▁gözler	-9190
▁İnşallah	-9191
▁çoğunlukla	-9192
▁Sınır	-9193
▁çant	-9194
▁imalat	-9195
▁Gelecek	-9196
▁İLE	-9197
sedür	-9198
▁kral	-9199
mik	-9200
şek	-9201
▁artışı	-9202
▁çeyrek	-9203
▁temsilcileri	-9204
NA	-9205
▁Kurt	-9206
ısın	-9207
▁sos	-9208
-8	-9209
▁uğur	-9210
amızın	-9211
▁Okulu	-9212
▁çalışmaların	-9213
▁By	-9214
▁kahvaltı	-9215
▁fit	-9216
üsünü	-9217
alarca	-9218
▁tavır	-9219
▁gibidir	-9220
▁tadını	-9221
▁gözet	-9222
▁Brezil	-9223
▁göreve	-9224
▁ikamet	-9225
▁seviyorum	-9226
cıları	-9227
▁Parkı	-9228
▁kaldıraç	-9229
▁Döv	-9230
▁Şeker	-9231
▁yürürlüğe	-9232
▁ihtiyaçlarını	-9233
▁Koordin	-9234
▁attığı	-9235
▁ağrısı	-9236
astamonu	-9237
▁olursak	-9238
istler	-9239
▁Holding	-9240
▁fiyatlı	-9241
▁olacaksınız	-9242
âyet	-9243
yaz	-9244
▁Ask	-9245
icisi	-9246
▁Yoksa	-9247
load	-9248
▁bayr	-9249
▁hang	-9250
▁lastik	-9251
▁Yayınları	-9252
ÖZ	-9253
▁Camii	-9254
▁olgun	-9255
▁Çözüm	-9256
ART	-9257
naf	-9258
▁Cin	-9259
▁lay	-9260
mekle	-9261
▁olmasın	-9262
ıyorsunuz	-9263
▁farkınd	-9264
▁yapılarak	-9265
▁özür	-9266
▁göğüs	-9267
▁suyun	-9268
▁format	-9269
▁kurulmuş	-9270
▁İmparator	-9271
▁edilmelidir	-9272
▁yapacağınız	-9273
ADI	-9274
▁KAL	-9275
ulları	-9276
Av	-9277
▁Lib	-9278
▁gösterilen	-9279
▁görme	-9280
▁kıyafet	-9281
▁personeli	-9282
▁matematik	-9283
aci	-9284
edia	-9285
▁Ekran	-9286
▁Kadıköy	-9287
▁yerinden	-9288
▁Koz	-9289
▁gemi	-9290
▁Milyon	-9291
▁yapıldığını	-9292
DK	-9293
oban	-9294
▁YAŞ	-9295
▁lise	-9296
▁başarılar	-9297
▁olmasından	-9298
work	-9299
▁Hil	-9300
▁yang	-9301
▁Adres	-9302
▁bakar	-9303
▁Vergi	-9304
▁fikri	-9305
▁Kanada	-9306
▁Özellikleri	-9307
poz	-9308
▁hızı	-9309
▁Sigort	-9310
▁restoran	-9311
▁sorumluluğ	-9312
▁Pil	-9313
lamanın	-9314
ehr	-9315
rah	-9316
▁TÜRKİYE	-9317
▁gelişmeleri	-9318
AG	-9319
▁vol	-9320
▁gergin	-9321
Ön	-9322
cin	-9323
mec	-9324
▁Biy	-9325
tisiz	-9326
umuzda	-9327
▁rüzgar	-9328
▁muhtemel	-9329
▁aldığınız	-9330
▁sözleşmesi	-9331
no	-9332
imet	-9333
▁niye	-9334
afe	-9335
del	-9336
▁AP	-9337
▁reç	-9338
akları	-9339
peryal	-9340
▁burun	-9341
▁Trafik	-9342
çü	-9343
▁3-	-9344
▁Bilin	-9345
esidir	-9346
▁cezaev	-9347
▁döndür	-9348
▁haksız	-9349
usun	-9350
▁eseri	-9351
âl	-9352
zir	-9353
▁EM	-9354
▁YAR	-9355
▁serisi	-9356
▁nereden	-9357
▁şartlar	-9358
▁temsilcisi	-9359
Ek	-9360
uydu	-9361
giliz	-9362
▁oper	-9363
ational	-9364
▁göçmen	-9365
▁edildiğini	-9366
ürt	-9367
▁Pet	-9368
70	-9369
İMİZ	-9370
▁sürdü	-9371
ading	-9372
▁üreten	-9373
▁gençler	-9374
▁TEM	-9375
▁7/24	-9376
▁Cilt	-9377
▁Dost	-9378
▁oluşturduğu	-9379
▁Ant	-9380
▁ard	-9381
▁duyul	-9382
▁Direktörü	-9383
vat	-9384
▁KKTC	-9385
▁Olymp	-9386
▁denli	-9387
▁taahhüt	-9388
Press	-9389
▁öldü	-9390
▁İlaç	-9391
emiyorum	-9392
▁sevilen	-9393
▁delil	-9394
▁entegre	-9395
▁Toplantı	-9396
con	-9397
dinde	-9398
bulans	-9399
▁Albay	-9400
▁Cihaz	-9401
▁İsveç	-9402
▁Maliye	-9403
▁aralığ	-9404
IYOR	-9405
▁plaj	-9406
▁şair	-9407
▁aldıkları	-9408
▁Afganistan	-9409
▁katli	-9410
▁anlatım	-9411
▁posta	-9412
▁gelmez	-9413
▁yükselen	-9414
AYA	-9415
fone	-9416
uluğu	-9417
▁Soylu	-9418
▁mesleğ	-9419
▁olanların	-9420
ikler	-9421
kap	-9422
lüğünü	-9423
▁idare	-9424
▁satan	-9425
▁aracılığı	-9426
+1	-9427
ısındaki	-9428
▁Meydanı	-9429
▁tac	-9430
▁Çevr	-9431
▁sahada	-9432
▁fazlasını	-9433
▁oraya	-9434
▁Avustralya	-9435
▁Des	-9436
▁satıcı	-9437
larımızda	-9438
▁açıklan	-9439
▁bugünkü	-9440
▁bilinmektedir	-9441
ânı	-9442
ahya	-9443
▁Hikay	-9444
▁semin	-9445
▁CEO	-9446
▁adresine	-9447
▁kg	-9448
▁ihtimali	-9449
▁uzmanı	-9450
▁direktör	-9451
aboratuvar	-9452
▁peygamber	-9453
▁hazırlanmış	-9454
▁müsa	-9455
hiş	-9456
OĞLU	-9457
asınız	-9458
▁heyet	-9459
▁bağlıdır	-9460
▁milletin	-9461
▁kullanıma	-9462
▁açıklamalar	-9463
sus	-9464
▁yatırımcıların	-9465
cusu	-9466
▁buğ	-9467
odafone	-9468
▁herkesi	-9469
▁EV	-9470
▁Nes	-9471
▁Ateş	-9472
▁mesela	-9473
▁sürecinin	-9474
zim	-9475
akal	-9476
▁görünce	-9477
▁Profesyonel	-9478
▁Kalite	-9479
▁ibadet	-9480
▁Yapılır	-9481
▁Platformu	-9482
▁Akın	-9483
▁sizinle	-9484
▁başa	-9485
▁strateji	-9486
tra	-9487
▁kiral	-9488
▁gayrimenkul	-9489
ota	-9490
▁Hoş	-9491
mesin	-9492
▁Gelin	-9493
▁ithal	-9494
▁değerini	-9495
▁hükümeti	-9496
önü	-9497
▁başkenti	-9498
▁yaratıcı	-9499
lip	-9500
▁mevzuat	-9501
acklink	-9502
▁Değişik	-9503
▁cüzdan	-9504
▁yumurt	-9505
▁MU	-9506
▁durumuna	-9507
▁geliştirilen	-9508
▁Yazılım	-9509
▁paralar	-9510
▁Tekirdağ	-9511
▁sizlerin	-9512
▁koca	-9513
▁sözler	-9514
▁hepsini	-9515
▁nükleer	-9516
▁dekorasyon	-9517
ubay	-9518
▁Ast	-9519
▁Dekor	-9520
▁Nakliyat	-9521
▁kaleme	-9522
▁Ekip	-9523
▁politika	-9524
▁uygulanması	-9525
▁uzan	-9526
▁Diyanet	-9527
▁koyun	-9528
▁benden	-9529
▁Siyaset	-9530
▁organik	-9531
ĞI	-9532
▁Bo	-9533
▁Black	-9534
▁Japon	-9535
▁tatmin	-9536
▁çalıştı	-9537
▁tahsil	-9538
▁olabileceğini	-9539
!..	-9540
iğit	-9541
▁Şey	-9542
▁Otomobil	-9543
▁sürecini	-9544
İNİN	-9545
▁kimdir	-9546
▁görüntül	-9547
▁getirerek	-9548
▁oradan	-9549
▁öncelikli	-9550
▁bilgilendirme	-9551
/10	-9552
▁Cey	-9553
▁Aksi	-9554
▁Nitekim	-9555
▁istedik	-9556
▁SAĞ	-9557
▁röportaj	-9558
PSS	-9559
▁My	-9560
▁War	-9561
▁bardak	-9562
▁Sigorta	-9563
▁başarıyla	-9564
ranı	-9565
▁Fel	-9566
▁Şim	-9567
▁yazan	-9568
▁sektörün	-9569
▁terc	-9570
▁geçiren	-9571
▁pandemi	-9572
▁yapmadan	-9573
▁mutf	-9574
▁isimleri	-9575
çısı	-9576
lamayı	-9577
▁somut	-9578
▁Marka	-9579
▁haberdar	-9580
mon	-9581
▁ilgilendir	-9582
ayn	-9583
▁Şart	-9584
▁ülkeleri	-9585
▁verdiğini	-9586
▁çif	-9587
▁görünür	-9588
lenmektedir	-9589
▁çalışırken	-9590
▁özelliklerini	-9591
▁So	-9592
doğu	-9593
▁Max	-9594
▁YouT	-9595
ümüze	-9596
ilelik	-9597
▁Mevcut	-9598
▁doku	-9599
▁eğil	-9600
▁tarafta	-9601
▁basketbol	-9602
▁fı	-9603
▁Mavi	-9604
▁dediler	-9605
bilirsiniz	-9606
▁tıkan	-9607
▁hastanın	-9608
kender	-9609
▁siteniz	-9610
▁tarihte	-9611
ies	-9612
▁vize	-9613
▁Yalova	-9614
▁davası	-9615
▁saatlik	-9616
▁uyandır	-9617
▁Mosk	-9618
▁reak	-9619
▁almadan	-9620
acın	-9621
izin	-9622
▁vicdan	-9623
▁rız	-9624
latma	-9625
matik	-9626
▁paketi	-9627
ĞİTİM	-9628
▁İsviç	-9629
erin	-9630
▁Rak	-9631
brek	-9632
▁liraya	-9633
▁etmekte	-9634
▁tecrübe	-9635
▁performansı	-9636
ırnak	-9637
▁gezeg	-9638
▁Oyunları	-9639
▁ES	-9640
▁neg	-9641
▁iyileş	-9642
▁görüldü	-9643
▁eksikliği	-9644
işli	-9645
▁sakın	-9646
▁Bulut	-9647
▁olayın	-9648
▁dünyadaki	-9649
▁arayüz	-9650
▁yarısı	-9651
▁tabanlı	-9652
elikopter	-9653
▁Je	-9654
▁Teşkil	-9655
▁muhafaza	-9656
omb	-9657
▁Uzak	-9658
▁Gönül	-9659
▁Turan	-9660
▁10'	-9661
▁Trade	-9662
▁görünen	-9663
▁vurgu	-9664
▁hijyen	-9665
▁sağladı	-9666
ERK	-9667
▁toplantıda	-9668
▁sağlayacaktır	-9669
▁naz	-9670
▁Emlak	-9671
▁bastır	-9672
▁muhtar	-9673
▁samimi	-9674
▁Şubesi	-9675
▁Dünyada	-9676
▁istedikleri	-9677
oley	-9678
takım	-9679
abalar	-9680
▁kişiden	-9681
▁neş	-9682
pro	-9683
▁Link	-9684
▁Kurban	-9685
▁Salonu	-9686
▁verebilir	-9687
▁49	-9688
acaat	-9689
▁düzel	-9690
▁Telekom	-9691
▁müsabak	-9692
▁malzemeler	-9693
▁64	-9694
▁Pal	-9695
▁açar	-9696
▁yüzü	-9697
▁zorundadır	-9698
▁Üs	-9699
▁sandal	-9700
▁kalması	-9701
embe	-9702
▁vekil	-9703
▁seviyesinde	-9704
ulet	-9705
▁bitti	-9706
▁Okunma	-9707
▁cihazı	-9708
▁yoldan	-9709
▁sürdüren	-9710
▁yarattığı	-9711
Haber	-9712
▁menf	-9713
▁Kilis	-9714
▁desen	-9715
▁itiraf	-9716
kış	-9717
▁Da	-9718
▁Key	-9719
▁Ekrem	-9720
▁bütçe	-9721
▁sömür	-9722
icileri	-9723
lığıyla	-9724
▁bayrak	-9725
▁manzar	-9726
▁dürüst	-9727
▁ağırlıklı	-9728
etli	-9729
emeyecek	-9730
▁tutuklu	-9731
▁det	-9732
▁girer	-9733
▁nefret	-9734
▁antrenman	-9735
▁Ül	-9736
▁Adım	-9737
▁Kırk	-9738
▁değişimi	-9739
▁hissettir	-9740
▁Dah	-9741
▁TOP	-9742
▁oynadığı	-9743
▁toplanan	-9744
▁tıklayarak	-9745
▁sus	-9746
▁hesabınız	-9747
▁gerçekleştirmek	-9748
uklu	-9749
▁severler	-9750
ayıcı	-9751
dunuz	-9752
▁Devamını	-9753
IMIZ	-9754
sinden	-9755
tah	-9756
iliş	-9757
▁BAK	-9758
▁uyk	-9759
▁cumhurbaş	-9760
▁Elektronik	-9761
▁çil	-9762
▁ayrıc	-9763
duklarını	-9764
Kİ	-9765
▁tabak	-9766
▁defter	-9767
▁makale	-9768
nav	-9769
▁düşünen	-9770
▁istenilen	-9771
▁Ras	-9772
▁tüp	-9773
▁etmey	-9774
landırma	-9775
▁markası	-9776
cm	-9777
▁Nef	-9778
▁kın	-9779
▁zem	-9780
▁derg	-9781
▁bölgedeki	-9782
▁olacağına	-9783
▁Büy	-9784
▁Onu	-9785
▁köprü	-9786
▁midir	-9787
▁fiyata	-9788
▁istemez	-9789
▁Market	-9790
▁obj	-9791
▁Öner	-9792
▁oyuncusu	-9793
▁uzaklaştır	-9794
▁problemi	-9795
2)	-9796
▁Nelerdir	-9797
▁prosedür	-9798
▁tüketici	-9799
Dün	-9800
LARIN	-9801
▁bacak	-9802
lamanız	-9803
▁Basketbol	-9804
▁şik	-9805
▁Kuvvetleri	-9806
▁titiz	-9807
▁tıpkı	-9808
▁yaşadı	-9809
▁muhalefet	-9810
▁rejim	-9811
▁devleti	-9812
▁iOS	-9813
▁nadir	-9814
▁kıymetli	-9815
EFA	-9816
sizin	-9817
ilmeye	-9818
▁sıkça	-9819
▁uydur	-9820
▁onlarla	-9821
▁kaynaklanan	-9822
▁gerektiren	-9823
▁sök	-9824
▁resmen	-9825
▁Girişim	-9826
▁medeniyet	-9827
yak	-9828
uvalet	-9829
▁Adresi	-9830
alarımız	-9831
▁kategorisinde	-9832
▁döner	-9833
▁WordPress	-9834
▁Fay	-9835
▁şof	-9836
▁yetki	-9837
▁ekledi	-9838
▁ölen	-9839
▁gazeteci	-9840
▁ilişkili	-9841
▁belirlendi	-9842
▁politikası	-9843
-20	-9844
▁koydu	-9845
▁savaşı	-9846
▁organiz	-9847
▁eksiksiz	-9848
▁Davutoğlu	-9849
andum	-9850
▁İlçesi	-9851
▁Adnan	-9852
▁önemini	-9853
▁56	-9854
▁pomp	-9855
▁üste	-9856
▁dönük	-9857
▁sekiz	-9858
Bil	-9859
lerimi	-9860
▁Sürekli	-9861
▁edilemez	-9862
▁Ha	-9863
▁Memur	-9864
▁Ödeme	-9865
endim	-9866
▁Ağrı	-9867
ecilik	-9868
▁İmamoğlu	-9869
▁başvurusu	-9870
fon	-9871
****	-9872
▁yaban	-9873
▁Magazin	-9874
▁Kıl	-9875
aciğer	-9876
▁mesleki	-9877
▁kararını	-9878
▁yapıştır	-9879
▁tutuklandı	-9880
ski	-9881
▁leh	-9882
▁kimin	-9883
melerine	-9884
▁girecek	-9885
▁paranın	-9886
▁cihazlar	-9887
▁boyun	-9888
="	-9889
▁Tv	-9890
▁Çor	-9891
barat	-9892
▁birinde	-9893
▁sözlerini	-9894
▁Mari	-9895
inda	-9896
▁müş	-9897
▁arkadaşları	-9898
▁SS	-9899
üldüğü	-9900
▁doğalgaz	-9901
▁baktığımızda	-9902
ited	-9903
üntü	-9904
ülerek	-9905
▁antik	-9906
▁ispat	-9907
oleybol	-9908
▁portföy	-9909
▁haricinde	-9910
▁di	-9911
ling	-9912
▁kupon	-9913
000	-9914
▁başlandı	-9915
▁maddeler	-9916
▁danışmanlık	-9917
▁girerek	-9918
▁müşterilerine	-9919
Kur	-9920
▁Prot	-9921
▁beton	-9922
▁yüklen	-9923
▁sorusuna	-9924
▁arkadaşım	-9925
▁haklarını	-9926
▁verdiğimiz	-9927
▁yetkilileri	-9928
6)	-9929
saray	-9930
▁Olan	-9931
▁Esnaf	-9932
▁yazılmış	-9933
▁öğrencisi	-9934
tiy	-9935
▁Mc	-9936
▁çub	-9937
ıcılık	-9938
▁Gelir	-9939
▁Toprak	-9940
▁eğitime	-9941
iyorsanız	-9942
-11	-9943
langıç	-9944
▁izleyen	-9945
▁sponsor	-9946
▁(2)	-9947
▁semt	-9948
▁Opsiyon	-9949
▁ayrılan	-9950
▁bıraktı	-9951
▁hangisi	-9952
ılmalıdır	-9953
▁54	-9954
dukça	-9955
▁epey	-9956
▁etmem	-9957
▁Küresel	-9958
▁adli	-9959
▁YouTube	-9960
35	-9961
ANS	-9962
hay	-9963
▁Banka	-9964
▁gazete	-9965
▁zorlan	-9966
▁negatif	-9967
▁demokras	-9968
▁imkansız	-9969
▁belirlemek	-9970
▁lam	-9971
▁reddet	-9972
ojistik	-9973
▁Belediyespor	-9974
kes	-9975
▁riv	-9976
▁bilinçli	-9977
▁çalışmalarının	-9978
dınız	-9979
▁geçirdi	-9980
Gİ	-9981
▁koku	-9982
▁verip	-9983
▁yayınlan	-9984
▁başlatılan	-9985
dy	-9986
▁BB	-9987
▁Ref	-9988
▁tutk	-9989
▁zafer	-9990
▁emanet	-9991
▁hizmetlerini	-9992
▁EL	-9993
▁cadde	-9994
▁canım	-9995
▁oyuncak	-9996
▁sıralam	-9997
▁motosiklet	-9998
port	-9999
▁pik	-10000
▁Nerede	-10001
▁yöntemler	-10002
idin	-10003
▁disk	-10004
▁endek	-10005
▁Milliyet	-10006
▁Sağlıklı	-10007
Ev	-10008
▁hil	-10009
▁Gezi	-10010
▁Akşam	-10011
▁Trend	-10012
▁kontr	-10013
abilirsin	-10014
ens	-10015
▁tarihe	-10016
▁kaldırıldı	-10017
▁sayfasında	-10018
urya	-10019
▁oynam	-10020
▁ihtiyaçları	-10021
ATI	-10022
▁erdi	-10023
▁etmeden	-10024
▁boşluk	-10025
▁kutsal	-10026
▁kalitesini	-10027
İYET	-10028
▁YÖN	-10029
▁pir	-10030
▁doğrusu	-10031
▁çıkmaktadır	-10032
▁Sanal	-10033
▁yıllarında	-10034
mus	-10035
▁ilham	-10036
▁Kuruluş	-10037
▁İf	-10038
ünüzü	-10039
▁oksi	-10040
kz	-10041
▁Yunus	-10042
mil	-10043
▁göv	-10044
▁programına	-10045
▁konusundaki	-10046
▁çalışmalara	-10047
▁kağı	-10048
▁Katılım	-10049
▁muhabbet	-10050
▁Başbakanı	-10051
▁yapabilecek	-10052
▁tv	-10053
▁Üz	-10054
▁müd	-10055
▁Evren	-10056
▁cümle	-10057
larımızdan	-10058
▁SU	-10059
▁Eve	-10060
▁ast	-10061
▁Bart	-10062
▁Dört	-10063
▁Yöntem	-10064
▁güncelleme	-10065
wei	-10066
▁Nor	-10067
▁çır	-10068
▁Muhar	-10069
▁Sezon	-10070
▁Tatlı	-10071
ilerinde	-10072
▁hastanede	-10073
▁Ki	-10074
incan	-10075
▁dünyasının	-10076
kif	-10077
▁Kalp	-10078
▁iftar	-10079
▁Mutfak	-10080
▁haş	-10081
▁bant	-10082
▁Putin	-10083
▁şüphel	-10084
▁gelişimi	-10085
▁hastalıkları	-10086
▁hafız	-10087
▁klima	-10088
fil	-10089
çık	-10090
▁ceb	-10091
▁Esen	-10092
▁oyuna	-10093
▁Vakıf	-10094
liliğini	-10095
▁ettiklerini	-10096
edat	-10097
likten	-10098
▁kadına	-10099
▁duyulan	-10100
▁olsaydı	-10101
ümüzün	-10102
▁onarım	-10103
▁girdiği	-10104
▁sitelerinde	-10105
zaman	-10106
▁Geniş	-10107
▁denen	-10108
▁formu	-10109
▁santral	-10110
▁Yönetmel	-10111
▁görüntülü	-10112
▁sahibinin	-10113
▁Fah	-10114
piyat	-10115
▁suya	-10116
▁Berlin	-10117
▁karışık	-10118
▁Gizlilik	-10119
▁yatırımı	-10120
1)	-10121
luyor	-10122
▁Şef	-10123
▁diyebiliriz	-10124
▁Alex	-10125
arch	-10126
mart	-10127
▁ekleyin	-10128
▁veriliyor	-10129
DER	-10130
▁Sün	-10131
▁MAD	-10132
▁Mün	-10133
▁düşer	-10134
▁devamı	-10135
▁Bilgiler	-10136
▁Mit	-10137
▁isteği	-10138
▁ilişkisi	-10139
▁NE	-10140
igür	-10141
lası	-10142
▁2-3	-10143
▁çikol	-10144
▁Gökhan	-10145
▁girmiş	-10146
▁riskli	-10147
▁mag	-10148
erleri	-10149
▁Popüler	-10150
▁açıklamaya	-10151
cal	-10152
▁Por	-10153
▁Kuran	-10154
▁mağlup	-10155
▁sik	-10156
▁duran	-10157
▁Avukat	-10158
▁bölgelerde	-10159
▁gönderildi	-10160
8.	-10161
Dr	-10162
▁kardeşi	-10163
evler	-10164
ıcısı	-10165
▁Körf	-10166
encere	-10167
▁İzmit	-10168
▁ibaret	-10169
▁eklendi	-10170
▁11.	-10171
ümüzü	-10172
▁Pamuk	-10173
Fi	-10174
▁City	-10175
▁müte	-10176
▁bizde	-10177
▁diğeri	-10178
ayolları	-10179
▁durumunu	-10180
▁etkisiyle	-10181
▁noktaları	-10182
amamış	-10183
▁varlığını	-10184
▁fazlasıyla	-10185
▁olabileceği	-10186
io	-10187
▁UN	-10188
▁öp	-10189
anak	-10190
ersek	-10191
▁Başk	-10192
▁İhtiy	-10193
▁bilinir	-10194
▁gereksiz	-10195
▁içerisindeki	-10196
▁Bence	-10197
▁filtr	-10198
▁Efendi	-10199
▁meşhur	-10200
▁Sevgili	-10201
▁Yukarıda	-10202
▁değiştirmek	-10203
▁sağlayıcı	-10204
ýn	-10205
▁kep	-10206
▁Fuarı	-10207
▁katlı	-10208
▁miras	-10209
▁vazgeçilmez	-10210
▁işlemlerinin	-10211
7.	-10212
▁şeffaf	-10213
▁Milletler	-10214
▁yürüm	-10215
▁Balkan	-10216
▁Gu	-10217
▁Kaliteli	-10218
▁kaydedildi	-10219
LET	-10220
▁KAT	-10221
ideki	-10222
▁dönen	-10223
▁ayının	-10224
ılacaktır	-10225
AYIN	-10226
acası	-10227
lamaktadır	-10228
▁alet	-10229
▁Zafer	-10230
uawei	-10231
▁İnce	-10232
▁Ermeni	-10233
▁yazmış	-10234
▁cinsiyet	-10235
ekte	-10236
ileriyle	-10237
sün	-10238
▁tüy	-10239
▁geleceğe	-10240
▁IM	-10241
▁Real	-10242
▁fazlad	-10243
▁giderken	-10244
IY	-10245
▁ant	-10246
▁işley	-10247
▁Youtube	-10248
▁ilanları	-10249
▁yazımızda	-10250
▁edebilecek	-10251
▁çiğ	-10252
▁isyan	-10253
▁sınırsız	-10254
▁yönetici	-10255
eld	-10256
▁USB	-10257
▁facebook	-10258
▁operasyonu	-10259
TAN	-10260
▁Ted	-10261
üminyum	-10262
▁maçın	-10263
▁konuşul	-10264
▁NAS	-10265
▁ilah	-10266
▁vesile	-10267
▁girip	-10268
▁layık	-10269
▁kurucu	-10270
▁İsviçre	-10271
▁kuvvetli	-10272
▁açıklanan	-10273
▁Şampiyonası	-10274
▁Est	-10275
▁ÇAL	-10276
▁açtığı	-10277
▁WhatsApp	-10278
▁seviyeye	-10279
▁etkinliği	-10280
elin	-10281
gele	-10282
tüğü	-10283
▁Tatil	-10284
▁yelpaz	-10285
▁tarihinin	-10286
▁tecrübeli	-10287
saspor	-10288
▁katılmak	-10289
▁Öy	-10290
▁ulaşan	-10291
▁sayfası	-10292
▁etkinlikleri	-10293
abey	-10294
medim	-10295
▁Serdar	-10296
▁karşılamak	-10297
▁53	-10298
▁GER	-10299
▁Mini	-10300
▁Rektör	-10301
▁hassasiyet	-10302
kâr	-10303
▁TRT	-10304
▁Kudüs	-10305
▁İşletme	-10306
tüm	-10307
▁ANK	-10308
▁Bunları	-10309
▁almanız	-10310
▁Paket	-10311
▁boğaz	-10312
▁Moskova	-10313
lerimizde	-10314
▁yatırımlar	-10315
eron	-10316
▁Ölüm	-10317
▁limon	-10318
▁Vodafone	-10319
off	-10320
▁bot	-10321
▁Amaz	-10322
▁batı	-10323
▁Birlik	-10324
▁denize	-10325
elerimiz	-10326
▁alındığı	-10327
26	-10328
▁Süt	-10329
▁yüklü	-10330
▁kampanyası	-10331
▁are	-10332
▁gündür	-10333
▁Kastamonu	-10334
mece	-10335
▁insanlık	-10336
ung	-10337
ason	-10338
▁Elb	-10339
▁UEFA	-10340
▁elden	-10341
▁sergilen	-10342
▁sonradan	-10343
▁Char	-10344
▁Esas	-10345
▁Fırat	-10346
ilmişti	-10347
▁ebeveyn	-10348
▁BAŞKAN	-10349
▁kesintisiz	-10350
ÖY	-10351
▁Şekil	-10352
▁üyelerine	-10353
ırt	-10354
▁konulu	-10355
▁klas	-10356
nci	-10357
▁atmosfer	-10358
▁sorunlarını	-10359
Ge	-10360
▁kef	-10361
▁Bizler	-10362
▁Modelleri	-10363
over	-10364
▁AVM	-10365
hisar	-10366
▁şartı	-10367
luğunda	-10368
▁EĞİTİM	-10369
▁teşkilat	-10370
age	-10371
şun	-10372
▁Os	-10373
▁DÜN	-10374
▁emr	-10375
▁sordu	-10376
ahattin	-10377
▁randevu	-10378
üğü	-10379
▁yapıya	-10380
▁şehirde	-10381
▁birimleri	-10382
lig	-10383
▁ALT	-10384
▁kuruş	-10385
▁adamın	-10386
▁domates	-10387
▁kuruluşu	-10388
▁5'	-10389
▁Sipariş	-10390
▁Sekreteri	-10391
▁Eur	-10392
▁boru	-10393
▁salgını	-10394
▁araçların	-10395
▁işlemlerin	-10396
▁Me	-10397
▁Belç	-10398
▁sarf	-10399
▁Firma	-10400
▁Benzer	-10401
▁haftasında	-10402
tüğ	-10403
▁nik	-10404
▁yollar	-10405
▁uygulanır	-10406
▁Bulgaristan	-10407
▁internetten	-10408
▁Komut	-10409
▁çözünür	-10410
▁hazırlanıyor	-10411
▁85	-10412
▁atmak	-10413
▁dikkati	-10414
▁Ayşe	-10415
▁Çukur	-10416
larıdır	-10417
▁hepimiz	-10418
▁yılların	-10419
▁Sözleşmesi	-10420
▁go	-10421
ularak	-10422
▁artar	-10423
▁GÜNDEM	-10424
▁bebeğin	-10425
▁çalışanların	-10426
▁Sov	-10427
▁sebze	-10428
▁gecesi	-10429
▁İslami	-10430
▁Pazarlama	-10431
▁One	-10432
▁hâl	-10433
▁Bağım	-10434
▁Gelen	-10435
▁bulma	-10436
▁mıdır	-10437
▁yakında	-10438
▁aldığımız	-10439
▁parçaları	-10440
TIR	-10441
▁Tol	-10442
▁açılır	-10443
As	-10444
!!!	-10445
▁muc	-10446
▁ikiye	-10447
ÖK	-10448
ECEK	-10449
▁cidd	-10450
▁dediğ	-10451
▁intihar	-10452
▁kullanıldığı	-10453
▁temizliği	-10454
TS	-10455
-15	-10456
▁Ümit	-10457
▁tahliye	-10458
▁Yorumlar	-10459
▁bağır	-10460
▁ertelen	-10461
▁mantıklı	-10462
mazlık	-10463
▁elini	-10464
▁elbise	-10465
▁tarihten	-10466
On	-10467
maye	-10468
▁donat	-10469
ilerimiz	-10470
▁araştırmacı	-10471
iliğin	-10472
▁Karşı	-10473
▁işlen	-10474
avantaj	-10475
▁kalmadı	-10476
▁İSTANBUL	-10477
▁getirilmesi	-10478
arda	-10479
leşen	-10480
▁muam	-10481
▁arazi	-10482
▁yaratan	-10483
izmi	-10484
üleb	-10485
▁Had	-10486
▁Full	-10487
▁atlat	-10488
▁Saldır	-10489
▁Televizyon	-10490
▁adlandırılan	-10491
▁gev	-10492
▁yazısı	-10493
ladıktan	-10494
▁göreceksiniz	-10495
▁sunulmaktadır	-10496
▁Için	-10497
▁alerj	-10498
▁pamuk	-10499
▁ailenin	-10500
▁senaryo	-10501
▁cerrahi	-10502
▁Lak	-10503
▁Mete	-10504
▁işit	-10505
▁rüya	-10506
▁uydu	-10507
▁yazmak	-10508
▁cild	-10509
▁Birkaç	-10510
▁yazılan	-10511
▁geleceğini	-10512
▁tasarlanmış	-10513
▁birikim	-10514
▁etmeleri	-10515
▁kolaydır	-10516
fan	-10517
▁Eth	-10518
▁Kahv	-10519
▁ayrıldı	-10520
▁Yorumları	-10521
▁kurulması	-10522
28	-10523
TİR	-10524
▁Bus	-10525
▁sayılır	-10526
▁ürünlerini	-10527
▁GÜ	-10528
▁kesi	-10529
▁İsim	-10530
▁liman	-10531
▁nihayet	-10532
▁sağlanan	-10533
▁KO	-10534
▁başardı	-10535
▁etmeyin	-10536
▁Aşağıdaki	-10537
▁SGK	-10538
▁Şar	-10539
▁Bing	-10540
▁Fatma	-10541
ashington	-10542
▁İşlemleri	-10543
▁füz	-10544
▁kek	-10545
▁Kırık	-10546
umun	-10547
▁örgü	-10548
▁peynir	-10549
▁geçerlidir	-10550
▁KDV	-10551
▁Karabük	-10552
amda	-10553
▁yorumu	-10554
▁tanınan	-10555
▁bankalar	-10556
▁cezalandır	-10557
LÜ	-10558
▁AŞ	-10559
▁Ez	-10560
▁öncü	-10561
memektedir	-10562
▁hastalığın	-10563
olojisi	-10564
▁bölgesel	-10565
▁bölümünü	-10566
▁ا	-10567
▁iv	-10568
▁utan	-10569
▁meşru	-10570
▁boşalt	-10571
▁coğrafy	-10572
▁keyfini	-10573
▁kimseye	-10574
▁satılan	-10575
▁dediğimiz	-10576
▁söyleyebiliriz	-10577
1,	-10578
▁dk	-10579
▁programında	-10580
▁AA	-10581
▁ertel	-10582
▁Sendik	-10583
iirt	-10584
▁işsiz	-10585
▁Ödülü	-10586
▁sefere	-10587
▁değilse	-10588
▁Başakşehir	-10589
rib	-10590
▁dü	-10591
▁nın	-10592
ağından	-10593
▁hikaye	-10594
▁hastalar	-10595
▁yenilikçi	-10596
▁oyuncuları	-10597
Bugün	-10598
▁memnuniyeti	-10599
▁Düşün	-10600
acağından	-10601
Özel	-10602
▁fav	-10603
▁Yolu	-10604
▁kredisi	-10605
abilmeniz	-10606
raj	-10607
iliğinden	-10608
▁yalı	-10609
▁evlat	-10610
imasyon	-10611
▁belgeler	-10612
ptom	-10613
▁Erol	-10614
▁karn	-10615
▁etmişti	-10616
▁menfaat	-10617
▁Du	-10618
▁şö	-10619
▁Veli	-10620
▁kanseri	-10621
▁şimdiye	-10622
▁Yargıtay	-10623
▁benzersiz	-10624
▁tedbirleri	-10625
▁Komutanlığı	-10626
▁kuruluşları	-10627
arlı	-10628
larsa	-10629
▁artı	-10630
▁Bulun	-10631
▁baraj	-10632
▁kanaat	-10633
▁ilaçlar	-10634
▁oluşuyor	-10635
▁Ta	-10636
▁Faruk	-10637
▁fırın	-10638
▁konuşmada	-10639
EG	-10640
ase	-10641
hak	-10642
ydı	-10643
▁hamur	-10644
▁içecek	-10645
▁bilgiyi	-10646
▁müracaat	-10647
▁yaptığım	-10648
▁atıl	-10649
▁Bonusu	-10650
▁alışkanlık	-10651
▁hesabınıza	-10652
ARK	-10653
mama	-10654
ğrul	-10655
▁Mali	-10656
▁cesaret	-10657
▁işlemini	-10658
2'	-10659
▁ülkeyi	-10660
▁gerektirir	-10661
9.	-10662
▁bekliyorum	-10663
▁harek	-10664
▁salonu	-10665
▁sevdik	-10666
ilmesinin	-10667
▁Bakanlık	-10668
TM	-10669
▁mült	-10670
▁geçirdiği	-10671
ware	-10672
▁öykü	-10673
▁Bahar	-10674
▁Tokat	-10675
▁bakmak	-10676
acağınızı	-10677
▁bağlantılı	-10678
▁kullanıcılara	-10679
eleme	-10680
▁kira	-10681
▁Turgut	-10682
▁dinlen	-10683
▁çamaşır	-10684
layabilir	-10685
▁belirtmek	-10686
▁söyleyerek	-10687
weet	-10688
yolu	-10689
eyerek	-10690
▁Bekir	-10691
▁arıza	-10692
▁yağlı	-10693
▁çalın	-10694
▁buradaki	-10695
CO	-10696
itan	-10697
▁anlama	-10698
lerimizden	-10699
İz	-10700
ozgat	-10701
▁iktis	-10702
▁madal	-10703
▁ambulans	-10704
▁mücadelesi	-10705
▁düşünüyoruz	-10706
▁değerlendirmek	-10707
miyorum	-10708
▁Rehberi	-10709
▁Kategori	-10710
▁Toplantısı	-10711
▁Çat	-10712
alarak	-10713
▁inanc	-10714
▁müthiş	-10715
▁birtakım	-10716
▁yöneticileri	-10717
İV	-10718
Net	-10719
▁makul	-10720
▁telaf	-10721
▁Petrol	-10722
ladıkları	-10723
avüz	-10724
▁Suriyeli	-10725
DF	-10726
Çok	-10727
▁çıl	-10728
▁Şif	-10729
aspor	-10730
▁atöly	-10731
▁Devletleri	-10732
▁Kodu	-10733
▁mahkum	-10734
▁yetmez	-10735
▁planlanan	-10736
ozit	-10737
▁kaygı	-10738
▁Fiyatı	-10739
ct	-10740
▁MİL	-10741
▁İskender	-10742
▁anlamıyla	-10743
▁rot	-10744
▁Huawei	-10745
▁verdikleri	-10746
iral	-10747
osunu	-10748
▁bran	-10749
▁kader	-10750
▁Amazon	-10751
▁Klasik	-10752
▁perde	-10753
▁Analiz	-10754
▁Kitab	-10755
▁çağdaş	-10756
▁Türkler	-10757
▁Tev	-10758
▁Vit	-10759
▁arasındadır	-10760
▁konularında	-10761
ekiz	-10762
malarının	-10763
▁Alışveriş	-10764
▁lin	-10765
▁Metal	-10766
▁iyisi	-10767
▁olmamak	-10768
▁yapıyorum	-10769
▁oluşturuyor	-10770
1'	-10771
sede	-10772
▁Fon	-10773
▁usta	-10774
irse	-10775
▁fabrika	-10776
▁bağlamda	-10777
▁bağışıklık	-10778
ülüğ	-10779
▁graf	-10780
ografi	-10781
▁basınç	-10782
▁teşhis	-10783
▁tamamını	-10784
▁algıl	-10785
▁yasağı	-10786
▁muayene	-10787
▁kararları	-10788
YD	-10789
ness	-10790
tıkça	-10791
▁hakkına	-10792
▁Başkanımız	-10793
old	-10794
crip	-10795
▁Umut	-10796
▁Pin	-10797
ılmıştı	-10798
▁Global	-10799
▁hesaba	-10800
ABD	-10801
post	-10802
▁Şük	-10803
▁esir	-10804
▁geçin	-10805
▁takib	-10806
▁müddet	-10807
ahisar	-10808
▁Restor	-10809
▁maddeleri	-10810
▁Sonrasında	-10811
▁12.	-10812
▁razı	-10813
▁sayfada	-10814
▁haftanın	-10815
▁sonlandır	-10816
sev	-10817
emedi	-10818
▁yüze	-10819
▁Cevabı	-10820
▁şim	-10821
▁Yılı	-10822
▁verirken	-10823
lerince	-10824
▁endişe	-10825
▁gümrük	-10826
▁tutarı	-10827
▁gençlerin	-10828
▁ifadesini	-10829
▁kitapları	-10830
▁Çavuşoğlu	-10831
▁katılımıyla	-10832
▁len	-10833
▁Kovid	-10834
▁sizde	-10835
▁bileşen	-10836
▁plakalı	-10837
▁üretici	-10838
▁kurumları	-10839
▁noktasına	-10840
▁Birbir	-10841
▁hormon	-10842
▁ilgisi	-10843
▁bağlantısı	-10844
▁Ep	-10845
▁akş	-10846
▁Arşiv	-10847
▁Terim	-10848
▁etmenin	-10849
▁oluşmaktadır	-10850
irmi	-10851
obet	-10852
▁tespiti	-10853
▁filmleri	-10854
▁yaşandığı	-10855
▁Sad	-10856
tions	-10857
▁Kişi	-10858
▁Anlat	-10859
▁Kazak	-10860
▁aleyh	-10861
▁aydır	-10862
▁geçecek	-10863
▁insanlarla	-10864
ID	-10865
▁Kargo	-10866
▁bayanlar	-10867
▁kilometr	-10868
HAL	-10869
▁Ülke	-10870
▁Diyet	-10871
▁sürecin	-10872
27	-10873
.''	-10874
▁hâkim	-10875
▁bakter	-10876
▁fatura	-10877
▁misyon	-10878
▁ilçesine	-10879
▁ailesinin	-10880
▁gerçekleştiren	-10881
acılığı	-10882
ivan	-10883
▁KAP	-10884
▁Söy	-10885
▁kardeşim	-10886
▁fot	-10887
ellef	-10888
▁Kaldır	-10889
▁anayas	-10890
▁çekerek	-10891
cesi	-10892
▁Çel	-10893
▁Mahk	-10894
▁emeği	-10895
▁uygulay	-10896
lerinizin	-10897
▁edeceğini	-10898
ff	-10899
ıysa	-10900
▁Otur	-10901
alisyon	-10902
▁geçmesi	-10903
▁ülkeden	-10904
▁kusursuz	-10905
▁İnsanların	-10906
▁bulunmamaktadır	-10907
▁kavr	-10908
▁Mutlu	-10909
▁kapak	-10910
▁mevki	-10911
eck	-10912
üse	-10913
▁fes	-10914
▁İddi	-10915
▁kiralık	-10916
lib	-10917
▁hâlâ	-10918
▁Engin	-10919
eğinden	-10920
▁baskın	-10921
▁kadını	-10922
▁konsept	-10923
▁57	-10924
▁Cap	-10925
beyaz	-10926
▁kültürü	-10927
▁başlamadan	-10928
TAL	-10929
▁trav	-10930
▁açığa	-10931
▁sıkış	-10932
▁sezonu	-10933
▁direniş	-10934
▁peşinde	-10935
▁Vi	-10936
dışı	-10937
▁Umar	-10938
▁Zeynep	-10939
▁oyuncuların	-10940
▁Nik	-10941
▁vurdu	-10942
▁rahatlat	-10943
▁getirecek	-10944
ilmeli	-10945
lanmaz	-10946
üsünde	-10947
▁Kütahya	-10948
▁dünyası	-10949
Dünya	-10950
▁Özcan	-10951
▁Standart	-10952
▁özelleştir	-10953
apur	-10954
adası	-10955
ledim	-10956
▁aktaran	-10957
San	-10958
▁girişimi	-10959
65	-10960
âb	-10961
val	-10962
eder	-10963
cıların	-10964
afak	-10965
▁Cami	-10966
▁İdaresi	-10967
▁Nevşehir	-10968
▁Bursaspor	-10969
▁Washington	-10970
▁bireylerin	-10971
▁kullanıcılarına	-10972
▁KPSS	-10973
▁Sorun	-10974
▁hayatının	-10975
▁BI	-10976
▁BÜY	-10977
▁parası	-10978
6.	-10979
▁1/	-10980
ical	-10981
iret	-10982
İnsan	-10983
▁depo	-10984
▁hemde	-10985
▁keskin	-10986
▁Üzerine	-10987
▁kavuştur	-10988
▁kullanışlı	-10989
ras	-10990
▁opt	-10991
▁Plus	-10992
▁etap	-10993
▁tüken	-10994
dığından	-10995
abiliyorsunuz	-10996
GE	-10997
▁içe	-10998
▁korona	-10999
▁Madrid	-11000
İKA	-11001
▁sep	-11002
▁vergisi	-11003
▁avantajları	-11004
ciğer	-11005
mayla	-11006
▁sade	-11007
▁rivayet	-11008
▁günümüze	-11009
▁Aut	-11010
▁hev	-11011
▁Düğün	-11012
▁amaçla	-11013
▁motoru	-11014
▁kendime	-11015
▁Um	-11016
ansa	-11017
▁aldığım	-11018
YK	-11019
▁sevdiği	-11020
▁bireyler	-11021
▁dönemine	-11022
▁istediğim	-11023
▁Hazine	-11024
▁girişi	-11025
▁düşünün	-11026
▁kameralı	-11027
▁Birleşmiş	-11028
▁iğ	-11029
▁Çiz	-11030
▁sars	-11031
▁redded	-11032
▁sorusu	-11033
▁yaratmak	-11034
▁800	-11035
▁Tez	-11036
▁bag	-11037
▁çığ	-11038
▁imal	-11039
▁dördüncü	-11040
▁kişileri	-11041
▁tansiyon	-11042
▁nitelendir	-11043
RU	-11044
KUR	-11045
▁4'	-11046
üstri	-11047
▁Oldu	-11048
▁kalkın	-11049
▁bebeğ	-11050
▁şeref	-11051
▁GÜNCEL	-11052
▁faydaları	-11053
▁58	-11054
▁Berk	-11055
▁yazılımı	-11056
▁depresyon	-11057
LAŞ	-11058
▁Trak	-11059
▁kronik	-11060
▁güçleri	-11061
▁belirsiz	-11062
▁gerçekleşecek	-11063
▁TAK	-11064
ıklık	-11065
▁işken	-11066
İLM	-11067
▁Orada	-11068
▁Onların	-11069
▁olduktan	-11070
▁tedavisinde	-11071
▁Belg	-11072
▁ayet	-11073
▁Amerikalı	-11074
▁faaliyetlerini	-11075
Bel	-11076
USD	-11077
▁klav	-11078
unuzda	-11079
▁güzer	-11080
▁ÇALIŞ	-11081
▁giriyor	-11082
▁hissede	-11083
▁Geliştirme	-11084
▁çalışanlar	-11085
▁adil	-11086
meliyiz	-11087
▁sigortası	-11088
▁sitelerinin	-11089
oss	-11090
▁SER	-11091
▁yıp	-11092
▁çür	-11093
ıysanız	-11094
▁Kapalı	-11095
tesi	-11096
salar	-11097
▁Kans	-11098
▁Bakır	-11099
▁garip	-11100
▁bardağı	-11101
▁kurumların	-11102
▁Gölü	-11103
▁YENİ	-11104
▁ardı	-11105
▁derhal	-11106
▁denildi	-11107
▁kaçınılmaz	-11108
uki	-11109
ücel	-11110
▁dalga	-11111
▁Dernek	-11112
▁kurduğu	-11113
▁çekilen	-11114
Cumhur	-11115
▁tüccar	-11116
acan	-11117
▁alam	-11118
▁menü	-11119
▁your	-11120
▁iltih	-11121
▁ortalam	-11122
▁kadınlara	-11123
▁je	-11124
cunun	-11125
▁düzeni	-11126
▁sünnet	-11127
▁belirlem	-11128
Ah	-11129
▁ayın	-11130
▁kongr	-11131
▁töreni	-11132
▁yaptıktan	-11133
▁Ermenistan	-11134
▁fiyatlarla	-11135
▁ani	-11136
lerimizle	-11137
▁sağlanır	-11138
UY	-11139
idd	-11140
üel	-11141
▁sec	-11142
▁dudak	-11143
▁kurdu	-11144
▁benimle	-11145
RA	-11146
aze	-11147
▁anım	-11148
▁Yazdır	-11149
▁Yanıtla	-11150
▁kablosuz	-11151
▁belgeleri	-11152
▁maddesinin	-11153
▁mücadelede	-11154
▁geçtiği	-11155
▁okuyucu	-11156
▁belirlenmesi	-11157
icil	-11158
rettin	-11159
▁taşır	-11160
▁dahaki	-11161
▁alacağı	-11162
▁olanları	-11163
▁dilediğiniz	-11164
delik	-11165
▁Fizik	-11166
▁Kadar	-11167
▁Libya	-11168
▁kendimizi	-11169
▁borcu	-11170
▁çıkarılan	-11171
▁gereksinim	-11172
▁1-2	-11173
▁sınırı	-11174
▁Yeniden	-11175
▁sorumluluğu	-11176
▁ÖĞ	-11177
▁KUL	-11178
▁Tag	-11179
▁ücretli	-11180
▁sitesinden	-11181
ANLI	-11182
▁HAY	-11183
▁koyu	-11184
▁haliyle	-11185
▁ifadesi	-11186
▁metrekare	-11187
Bak	-11188
▁AF	-11189
▁BUR	-11190
▁çağrısı	-11191
▁tüketimi	-11192
▁yapılacağı	-11193
St	-11194
graf	-11195
▁Fazla	-11196
▁Devamı	-11197
▁belirlenir	-11198
▁helikopter	-11199
▁verilerine	-11200
▁kullanılacak	-11201
▁BUL	-11202
▁Fas	-11203
iğini	-11204
mektir	-11205
▁etmesini	-11206
▁Mük	-11207
▁kıt	-11208
▁hükümetin	-11209
ics	-11210
osun	-11211
jinal	-11212
▁Risk	-11213
▁hırsız	-11214
▁gazetesi	-11215
▁sürdürdü	-11216
▁kömür	-11217
amazsınız	-11218
▁Erzincan	-11219
▁başlayarak	-11220
▁turu	-11221
▁reform	-11222
▁uzanan	-11223
için	-11224
▁Tas	-11225
▁yanıl	-11226
▁doları	-11227
▁instagram	-11228
▁sağlayarak	-11229
▁Atak	-11230
▁rady	-11231
▁Master	-11232
▁Turkcell	-11233
▁kapsayan	-11234
▁merkezleri	-11235
Top	-11236
▁köyü	-11237
▁namazı	-11238
▁numara	-11239
▁oyunda	-11240
▁boyutlu	-11241
▁muhalif	-11242
▁tarihlerinde	-11243
fli	-11244
roup	-11245
▁şun	-11246
▁aşık	-11247
şen	-11248
▁YER	-11249
▁Bizi	-11250
▁sınıfı	-11251
▁başlığı	-11252
▁işsizlik	-11253
▁internette	-11254
▁SAY	-11255
▁kıyı	-11256
alıyız	-11257
▁Yoğun	-11258
cilerin	-11259
▁takibi	-11260
HK	-11261
▁hacmi	-11262
▁Bileti	-11263
▁kısmına	-11264
▁göstererek	-11265
▁sebz	-11266
epyeni	-11267
▁İhracat	-11268
landığını	-11269
▁değerler	-11270
asal	-11271
▁mum	-11272
larınızda	-11273
▁kütüphan	-11274
▁tıklayınız	-11275
▁İşçi	-11276
▁Yarım	-11277
▁kurma	-11278
▁okuyan	-11279
▁Öğ	-11280
▁Amas	-11281
▁Toto	-11282
▁üzül	-11283
▁Resim	-11284
▁düzenledi	-11285
▁yeterlidir	-11286
▁geliştirilmesi	-11287
lish	-11288
▁Gem	-11289
▁Ünal	-11290
▁Yazıcı	-11291
▁Anahtar	-11292
▁kurucusu	-11293
▁tün	-11294
▁taksi	-11295
▁kuruldu	-11296
▁DEN	-11297
▁kazı	-11298
▁devamlı	-11299
▁yapılmasını	-11300
▁yolun	-11301
▁geleni	-11302
▁ilerlem	-11303
▁dalgalan	-11304
▁yükümlülük	-11305
▁Kategoriler	-11306
▁minik	-11307
abilirim	-11308
▁Hakkari	-11309
▁hesabına	-11310
▁onlardan	-11311
mayacaktır	-11312
▁Kaymakamı	-11313
▁Lir	-11314
▁seks	-11315
▁kablo	-11316
▁kıyasla	-11317
▁uygundur	-11318
▁etkileyici	-11319
box	-11320
▁Sep	-11321
▁ilde	-11322
uçları	-11323
▁hareketleri	-11324
▁helal	-11325
▁ekipler	-11326
CA	-11327
biz	-11328
ney	-11329
ting	-11330
▁oto	-11331
▁Borç	-11332
▁Henüz	-11333
▁varmış	-11334
▁felaket	-11335
▁mineral	-11336
açlı	-11337
omen	-11338
▁Ahmed	-11339
▁idrar	-11340
▁kasab	-11341
lığımız	-11342
▁riskini	-11343
▁tehlike	-11344
▁yazılar	-11345
▁meselesi	-11346
acaklarını	-11347
falt	-11348
▁gözü	-11349
▁yaşar	-11350
▁global	-11351
▁yaptıklarını	-11352
▁Ajans	-11353
▁buluştu	-11354
▁gebelik	-11355
▁severlerin	-11356
▁Üyelik	-11357
▁Belçika	-11358
▁adımları	-11359
▁maddenin	-11360
▁yaşıyoruz	-11361
ela	-11362
epe	-11363
▁Hip	-11364
danın	-11365
minin	-11366
▁fiil	-11367
onomik	-11368
▁yardımcısı	-11369
idir	-11370
▁rica	-11371
▁bulgu	-11372
▁fırsatları	-11373
▁Avcı	-11374
▁seyret	-11375
▁üstlen	-11376
▁emeklilik	-11377
▁değiştirme	-11378
▁belirlenmiş	-11379
▁görülebilir	-11380
vis	-11381
ilikon	-11382
lüğüne	-11383
▁etsin	-11384
▁kavga	-11385
▁ordus	-11386
▁kullanılıyor	-11387
que	-11388
▁Akş	-11389
▁bomba	-11390
▁intik	-11391
▁tavan	-11392
▁büyüyen	-11393
▁aldıktan	-11394
▁fiyatlarını	-11395
▁4-	-11396
read	-11397
▁vakıf	-11398
▁Vekili	-11399
▁Misafir	-11400
▁gerilim	-11401
▁adresinden	-11402
▁görüntüler	-11403
lüt	-11404
▁kot	-11405
▁Erken	-11406
▁vakti	-11407
▁hazırladığı	-11408
HAN	-11409
▁Ste	-11410
▁Duvar	-11411
▁heykel	-11412
▁emperyal	-11413
▁örnekleri	-11414
İl	-11415
http	-11416
▁Usta	-11417
▁taht	-11418
▁Kural	-11419
▁hocam	-11420
▁solunum	-11421
▁Sw	-11422
▁Kök	-11423
▁buzdol	-11424
▁isabet	-11425
▁klinik	-11426
▁mezunu	-11427
▁Aksaray	-11428
▁Bilecik	-11429
▁edeceği	-11430
ılmasının	-11431
▁Brezilya	-11432
▁İlişkiler	-11433
gücü	-11434
▁Slot	-11435
▁çözül	-11436
▁tahsis	-11437
▁Otomatik	-11438
ope	-11439
▁hastaların	-11440
▁Olim	-11441
▁pres	-11442
▁varan	-11443
▁Sistemleri	-11444
▁HP	-11445
▁Kaş	-11446
▁veda	-11447
▁puanı	-11448
▁kazanım	-11449
▁milliyet	-11450
▁komb	-11451
▁köşe	-11452
▁İpek	-11453
▁Teklif	-11454
▁edelim	-11455
▁dayanan	-11456
▁etmiyor	-11457
▁edilecektir	-11458
lass	-11459
▁imaj	-11460
▁Asker	-11461
▁Evden	-11462
▁yıkan	-11463
melerde	-11464
celona	-11465
▁Levent	-11466
▁Garanti	-11467
▁böbrek	-11468
▁sürecine	-11469
▁yollarını	-11470
▁çalışmanın	-11471
▁onar	-11472
▁aldat	-11473
▁tarafa	-11474
▁önlemler	-11475
td	-11476
▁zeka	-11477
▁olmas	-11478
▁patates	-11479
▁beraberlik	-11480
▁kaldırılması	-11481
yat	-11482
▁PS	-11483
olos	-11484
▁Nas	-11485
halde	-11486
▁iseniz	-11487
▁oturan	-11488
▁konunun	-11489
▁kitle	-11490
▁koymak	-11491
▁oranla	-11492
▁oturma	-11493
▁Odaları	-11494
▁geçmişte	-11495
?'	-11496
avv	-11497
gelen	-11498
▁Antik	-11499
▁Konak	-11500
▁sürüş	-11501
▁Avusturya	-11502
▁mg	-11503
onim	-11504
▁fant	-11505
▁ruhsat	-11506
▁zeytiny	-11507
▁oluşturma	-11508
▁Angel	-11509
bür	-11510
▁We	-11511
▁Poker	-11512
▁berek	-11513
▁sitemizde	-11514
▁Gre	-11515
indan	-11516
eyince	-11517
▁Premi	-11518
▁balkon	-11519
▁hayati	-11520
▁belirtileri	-11521
fe	-11522
viv	-11523
▁Lid	-11524
▁asans	-11525
▁reaksiyon	-11526
▁seçimleri	-11527
\'	-11528
baba	-11529
▁SÜR	-11530
▁ÇOK	-11531
▁sofr	-11532
▁Fikir	-11533
▁Siirt	-11534
▁müslüm	-11535
▁bakarak	-11536
▁dr	-11537
▁Coş	-11538
▁Bilişim	-11539
▁diyalog	-11540
▁duyarlı	-11541
▁tuvalet	-11542
arka	-11543
▁İBB	-11544
grama	-11545
▁cazip	-11546
malarda	-11547
▁Bildir	-11548
▁varken	-11549
MASI	-11550
ümde	-11551
▁süz	-11552
resel	-11553
▁Eren	-11554
PA	-11555
▁mekân	-11556
▁Ürünleri	-11557
▁edilmesini	-11558
▁Hasta	-11559
▁islam	-11560
▁İstiklal	-11561
▁kaldırmak	-11562
▁etkinlikler	-11563
▁şekillendir	-11564
▁Kürd	-11565
▁Üçüncü	-11566
▁mutluluğ	-11567
▁teslimat	-11568
▁yapılmalıdır	-11569
leşmiş	-11570
▁kalmaz	-11571
▁mağaza	-11572
▁birbirlerine	-11573
▁Kapı	-11574
▁çırp	-11575
▁bürokr	-11576
ild	-11577
▁macer	-11578
▁yapış	-11579
▁gittim	-11580
▁transferi	-11581
▁dezavantaj	-11582
7)	-11583
ora	-11584
▁coşk	-11585
ikatür	-11586
▁kopar	-11587
▁önder	-11588
▁buğday	-11589
▁vermez	-11590
tes	-11591
▁alev	-11592
üsünün	-11593
▁gelmek	-11594
▁adamları	-11595
html	-11596
▁Sivil	-11597
▁ücretleri	-11598
…"	-11599
sağ	-11600
▁yapılacaktır	-11601
kay	-11602
dızı	-11603
▁Yık	-11604
çinin	-11605
▁yapmanın	-11606
masıdır	-11607
▁bırakıp	-11608
▁azaltmak	-11609
▁talepleri	-11610
gn	-11611
▁durak	-11612
▁görmez	-11613
▁gideceğ	-11614
▁sürecek	-11615
▁alınmıştır	-11616
▁merhaba	-11617
▁özelliklere	-11618
oç	-11619
alanı	-11620
▁sandık	-11621
▁kentinde	-11622
âz	-11623
ilyon	-11624
diğine	-11625
▁Kulüp	-11626
▁oğlum	-11627
▁vuruş	-11628
düğünde	-11629
▁İspanyol	-11630
▁vasıtasıyla	-11631
navut	-11632
▁şampiyonluk	-11633
Tar	-11634
▁co	-11635
▁TUR	-11636
▁hoca	-11637
▁Cemal	-11638
▁Hazret	-11639
▁topluma	-11640
3)	-11641
▁fiz	-11642
▁pür	-11643
▁kade	-11644
▁Cerrah	-11645
▁yüzüne	-11646
▁mobilya	-11647
▁Valiliği	-11648
▁MEB	-11649
▁hain	-11650
▁Çakır	-11651
▁koltuğ	-11652
▁Finansal	-11653
▁vatandaşlara	-11654
▁küp	-11655
▁atış	-11656
▁beyn	-11657
▁Özkan	-11658
▁yazdır	-11659
▁söylediği	-11660
▁kurallarına	-11661
way	-11662
amını	-11663
güven	-11664
▁Fuar	-11665
▁insani	-11666
▁yazıda	-11667
▁Kongre	-11668
▁kırsal	-11669
▁mimari	-11670
▁aktardı	-11671
▁takipçi	-11672
▁finansman	-11673
5.	-11674
CU	-11675
▁Ona	-11676
▁ihbar	-11677
▁beğeni	-11678
▁itfaiye	-11679
▁uygulamayı	-11680
▁olabilmektedir	-11681
NE	-11682
▁yaşamı	-11683
▁düşünmek	-11684
▁yayınladı	-11685
▁Akç	-11686
▁Laz	-11687
▁pap	-11688
▁vas	-11689
▁diyoruz	-11690
▁görevleri	-11691
İC	-11692
leği	-11693
tınız	-11694
iyeler	-11695
▁liralık	-11696
by	-11697
iew	-11698
▁tüf	-11699
▁İsa	-11700
▁ışın	-11701
▁Kağıt	-11702
alarındaki	-11703
▁41	-11704
▁Köpr	-11705
▁ekim	-11706
▁kanı	-11707
▁kesint	-11708
▁kaplama	-11709
▁öğle	-11710
▁ödülü	-11711
▁adaylar	-11712
▁olanağı	-11713
▁perakende	-11714
▁şirketlerinin	-11715
▁Mikro	-11716
▁Salon	-11717
▁cenaze	-11718
▁İy	-11719
arıya	-11720
▁çarpıcı	-11721
▁düşünceler	-11722
▁İS	-11723
▁Sayı	-11724
▁atarak	-11725
▁kitaplar	-11726
▁kurallar	-11727
▁saldırgan	-11728
oci	-11729
▁Eh	-11730
▁Şiir	-11731
▁tarihsel	-11732
▁Öğrenciler	-11733
The	-11734
ediyesi	-11735
▁toplama	-11736
▁alıyoruz	-11737
▁stratejileri	-11738
▁19.	-11739
▁tırman	-11740
▁karşılay	-11741
▁uygulamak	-11742
teb	-11743
▁Bö	-11744
içeği	-11745
▁açıp	-11746
▁sent	-11747
ENT	-11748
▁Oto	-11749
lenin	-11750
▁imkânı	-11751
▁kavramı	-11752
▁olurlar	-11753
main	-11754
▁Buz	-11755
▁Şüph	-11756
▁koşullar	-11757
veç	-11758
▁muhat	-11759
antolon	-11760
▁kazanır	-11761
▁arıyorum	-11762
▁gönderdi	-11763
▁farkındalık	-11764
▁2,	-11765
▁World	-11766
▁köylü	-11767
▁benims	-11768
▁dışarıdan	-11769
▁özelliğini	-11770
-9	-11771
▁kentin	-11772
Ey	-11773
don	-11774
veni	-11775
▁Pir	-11776
▁Olarak	-11777
yken	-11778
▁katman	-11779
▁kurumu	-11780
▁ü	-11781
MAZ	-11782
▁yönelt	-11783
▁yaşamış	-11784
▁İster	-11785
▁Denetim	-11786
▁birlikt	-11787
▁gençlik	-11788
rut	-11789
izmin	-11790
▁Oyunu	-11791
▁aksiyon	-11792
▁destekleyen	-11793
▁Şampiyonlar	-11794
dini	-11795
▁Lat	-11796
aklık	-11797
▁Yozgat	-11798
▁meşgul	-11799
▁Portekiz	-11800
▁kurtarma	-11801
▁yaşınday	-11802
ARET	-11803
▁cook	-11804
▁zira	-11805
▁Beğen	-11806
▁Güçlü	-11807
▁alındığında	-11808
ISI	-11809
▁PAR	-11810
liydi	-11811
onomi	-11812
▁Güler	-11813
▁moral	-11814
▁huzurlu	-11815
▁Radyo	-11816
▁gülüm	-11817
▁metro	-11818
▁Zamanı	-11819
▁kendiniz	-11820
▁çet	-11821
▁imar	-11822
emedim	-11823
▁Abdul	-11824
▁işlerini	-11825
ûl	-11826
Com	-11827
▁BT	-11828
▁OY	-11829
ojen	-11830
▁GAZ	-11831
▁best	-11832
▁Önder	-11833
▁farkına	-11834
▁görevlisi	-11835
▁MS	-11836
▁çoğal	-11837
▁çıkabilir	-11838
▁önlemleri	-11839
ayiş	-11840
ehri	-11841
▁haml	-11842
▁Demek	-11843
▁endeksi	-11844
▁yükleme	-11845
▁diyorlar	-11846
▁şehrinde	-11847
ılabilecek	-11848
▁fotoğrafları	-11849
▁Tık	-11850
▁ekm	-11851
▁Sing	-11852
▁yaşta	-11853
eneksel	-11854
▁yaratı	-11855
lenebilir	-11856
▁cevabını	-11857
▁olayların	-11858
▁yaşadıkları	-11859
küdar	-11860
yalar	-11861
▁Fayd	-11862
▁işine	-11863
▁Buradan	-11864
▁Çeşitli	-11865
▁modeller	-11866
▁gelişmesi	-11867
▁Lin	-11868
▁öyk	-11869
▁hamile	-11870
▁karara	-11871
amayacağı	-11872
▁kullanımına	-11873
▁konuşmasında	-11874
ayeti	-11875
▁kuran	-11876
▁ANKARA	-11877
▁Askeri	-11878
▁anlatmak	-11879
▁ihtiyacını	-11880
▁TOK	-11881
aktif	-11882
▁Sahip	-11883
▁başlı	-11884
▁Kızılay	-11885
▁Başarılı	-11886
▁tamamlandı	-11887
▁istemiyorum	-11888
▁istediklerini	-11889
▁yıkama	-11890
▁düzenlemeler	-11891
▁İK	-11892
▁bulam	-11893
▁Artvin	-11894
▁Tekrar	-11895
▁Gençler	-11896
▁grupları	-11897
▁çıktığını	-11898
▁bulunmayan	-11899
ouse	-11900
▁Enf	-11901
▁Şeyh	-11902
▁beklemek	-11903
▁Soğuk	-11904
▁düşüyor	-11905
▁gittiği	-11906
▁vücudun	-11907
▁öğrenim	-11908
adiş	-11909
▁küm	-11910
▁sag	-11911
ANK	-11912
▁Po	-11913
ooth	-11914
Çocuk	-11915
▁Döviz	-11916
luğunun	-11917
▁mantar	-11918
▁Dünyası	-11919
▁nazaran	-11920
▁semptom	-11921
▁bırakmak	-11922
▁yayımlan	-11923
▁81	-11924
ıtma	-11925
▁TFF	-11926
▁ster	-11927
▁zihn	-11928
eliyiz	-11929
▁Buluş	-11930
▁Kelim	-11931
▁Malzem	-11932
▁çeşidi	-11933
▁toprağa	-11934
▁yoğunlaş	-11935
▁çoğunluğu	-11936
low	-11937
uhaf	-11938
ispor	-11939
▁vaat	-11940
▁gelsin	-11941
▁kapasitesi	-11942
▁SPOR	-11943
▁dersi	-11944
▁edemez	-11945
▁sözcük	-11946
▁Mahkeme	-11947
▁avantajı	-11948
▁karaciğer	-11949
▁sisteminde	-11950
َا	-11951
▁me	-11952
▁ilim	-11953
▁genetik	-11954
▁görüldüğü	-11955
▁Belir	-11956
▁barın	-11957
▁çıkarı	-11958
▁üyeliğ	-11959
▁tarayıcı	-11960
▁hepimizin	-11961
▁zik	-11962
▁Sanay	-11963
▁dezenf	-11964
▁kısmen	-11965
▁tecavüz	-11966
usa	-11967
Daha	-11968
▁lezz	-11969
▁dosyaları	-11970
▁esen	-11971
▁lazer	-11972
▁yazma	-11973
▁mutlak	-11974
▁Temizlik	-11975
▁yukarıdaki	-11976
▁Jam	-11977
eğince	-11978
▁bakır	-11979
▁litre	-11980
▁takvim	-11981
▁Firmamız	-11982
▁Hastalıkları	-11983
▁buhar	-11984
▁Arapça	-11985
▁Doğa	-11986
▁Sony	-11987
▁Harek	-11988
▁içten	-11989
je	-11990
özel	-11991
▁BTC	-11992
▁Uşak	-11993
tifika	-11994
▁korsan	-11995
▁kitabın	-11996
▁Muharrem	-11997
▁babasının	-11998
Gel	-11999
caya	-12000
▁Beb	-12001
▁soğan	-12002
▁Kuru	-12003
▁alar	-12004
▁atın	-12005
▁sözde	-12006
▁havada	-12007
▁değiliz	-12008
▁bahisleri	-12009
▁başkanlık	-12010
ory	-12011
▁Merh	-12012
▁Okum	-12013
▁türkiye	-12014
▁dakikalık	-12015
▁na	-12016
fice	-12017
ademi	-12018
▁kast	-12019
tuğrul	-12020
▁Hakkı	-12021
▁Tercih	-12022
▁söndür	-12023
▁Hizmetler	-12024
▁OD	-12025
▁duyan	-12026
▁hissi	-12027
▁aramak	-12028
▁kaldım	-12029
▁yapmam	-12030
▁korkunç	-12031
▁eserleri	-12032
▁hikayesi	-12033
1/	-12034
uyuz	-12035
▁20.	-12036
▁Bartın	-12037
▁fiziki	-12038
imizdeki	-12039
▁ileride	-12040
▁elan	-12041
▁dökül	-12042
▁binası	-12043
▁gitmiş	-12044
▁muhabir	-12045
▁durumdan	-12046
▁yaşamaya	-12047
▁laboratuvar	-12048
leks	-12049
urun	-12050
▁GİR	-12051
▁halini	-12052
▁çözmek	-12053
▁merdiven	-12054
▁ötesinde	-12055
▁Başlangıç	-12056
2,	-12057
▁Eng	-12058
indedir	-12059
▁kalkış	-12060
▁referandum	-12061
df	-12062
kö	-12063
gov	-12064
▁Ofis	-12065
▁Tanıtım	-12066
▁tersine	-12067
▁sitesini	-12068
▁ürünlerinin	-12069
İF	-12070
▁GEÇ	-12071
▁Türkç	-12072
▁Sermaye	-12073
ladığınız	-12074
▁partinin	-12075
▁fotoğrafı	-12076
▁öğrencinin	-12077
▁gereğince	-12078
▁hesapları	-12079
ayız	-12080
▁Gid	-12081
▁hel	-12082
▁kızar	-12083
▁Tedavi	-12084
▁dayanık	-12085
▁standar	-12086
▁ilgisini	-12087
▁destekler	-12088
▁ifadeleri	-12089
▁kullanıcının	-12090
ato	-12091
eçi	-12092
EHİR	-12093
pazarı	-12094
▁sayın	-12095
▁sözlü	-12096
▁ülkemize	-12097
▁gerektiğine	-12098
45	-12099
▁rakib	-12100
▁biliniyor	-12101
▁deplasmanda	-12102
ward	-12103
ıplak	-12104
▁alem	-12105
▁uyuş	-12106
▁Sinema	-12107
iha	-12108
▁67	-12109
oksi	-12110
▁Kül	-12111
lediğini	-12112
▁defalarca	-12113
▁Il	-12114
▁Ir	-12115
▁Eyüp	-12116
▁Oktay	-12117
▁ortağı	-12118
▁hizmetlerin	-12119
▁ağı	-12120
▁Serbest	-12121
▁vermiştir	-12122
▁gas	-12123
daydı	-12124
▁Avrup	-12125
▁yumuş	-12126
▁Gümrük	-12127
▁müdürü	-12128
▁imzalan	-12129
istal	-12130
▁aldır	-12131
▁iyidir	-12132
▁şartlarda	-12133
▁bilinmeyen	-12134
yr	-12135
▁Tuğ	-12136
▁eti	-12137
▁doğu	-12138
▁Aracı	-12139
!)	-12140
Tüm	-12141
ezya	-12142
lemi	-12143
▁fırç	-12144
▁isteriz	-12145
▁Log	-12146
▁pet	-12147
iyenin	-12148
▁harik	-12149
▁ankara	-12150
▁Piyasası	-12151
ms	-12152
▁lev	-12153
iğinin	-12154
▁zordur	-12155
▁Operasyon	-12156
▁kendisinden	-12157
▁işlemlerinde	-12158
ANI	-12159
EDİ	-12160
▁HAS	-12161
Ankara	-12162
▁kombi	-12163
▁Görüntü	-12164
▁Bakanlar	-12165
▁bilmeyen	-12166
ınıp	-12167
lükte	-12168
▁başlıca	-12169
▁tamamlayan	-12170
29	-12171
bası	-12172
ogram	-12173
▁seçmen	-12174
▁birebir	-12175
▁oluyoruz	-12176
▁oranının	-12177
▁ülkelere	-12178
▁kapısı	-12179
▁kılavuz	-12180
▁yazıyor	-12181
▁ihtiyacımız	-12182
….	-12183
steri	-12184
▁Yüce	-12185
▁böcek	-12186
▁kararlı	-12187
▁oksijen	-12188
-01	-12189
▁700	-12190
ettür	-12191
▁Musa	-12192
▁Vücut	-12193
▁tüzel	-12194
▁muhtaç	-12195
▁takdim	-12196
▁gerekenler	-12197
▁yaşadığımız	-12198
aciv	-12199
▁Fit	-12200
ilemez	-12201
▁çeliş	-12202
ılaştır	-12203
▁başrol	-12204
▁yapabil	-12205
▁hatırlatan	-12206
▁İH	-12207
Eğer	-12208
▁Sözcüsü	-12209
▁yüzyılda	-12210
▁güvenliğini	-12211
İLİR	-12212
▁algı	-12213
▁Kırım	-12214
▁Senin	-12215
▁vermey	-12216
▁biriktir	-12217
▁zihinsel	-12218
▁vatandaşı	-12219
hep	-12220
lec	-12221
iliğe	-12222
▁atar	-12223
▁frag	-12224
▁Kamer	-12225
▁Demirtaş	-12226
▁aydınlatma	-12227
gir	-12228
▁vesil	-12229
▁otopark	-12230
eyz	-12231
use	-12232
▁uf	-12233
▁ÇIK	-12234
▁aranan	-12235
▁Belgesi	-12236
▁çıkmıştır	-12237
▁viz	-12238
▁Sili	-12239
▁sıfat	-12240
gilizce	-12241
▁ekonomisi	-12242
▁nedenleri	-12243
▁belirtiliyor	-12244
irkin	-12245
Devlet	-12246
aliman	-12247
ategor	-12248
▁tırnak	-12249
▁yaşadık	-12250
▁kolaylık	-12251
▁ayrıcalık	-12252
▁yönetiminin	-12253
BİT	-12254
adam	-12255
▁Göç	-12256
▁müc	-12257
cular	-12258
▁Adem	-12259
▁Trip	-12260
▁Değerli	-12261
PR	-12262
ahan	-12263
düzü	-12264
mine	-12265
▁DOĞ	-12266
▁tank	-12267
▁okudum	-12268
▁kurtulmak	-12269
▁olmayacaktır	-12270
-30	-12271
çının	-12272
▁kadem	-12273
▁habere	-12274
▁asansör	-12275
▁buluyor	-12276
atan	-12277
▁BAY	-12278
▁Coin	-12279
▁gelmiyor	-12280
▁sahasında	-12281
▁gördüğünüz	-12282
yor	-12283
▁Hy	-12284
▁Uzay	-12285
ownload	-12286
▁Muhtar	-12287
▁sırasıyla	-12288
OV	-12289
▁Tom	-12290
tiniz	-12291
▁deyiş	-12292
▁enstr	-12293
▁unvan	-12294
▁karışım	-12295
▁şüphesiz	-12296
able	-12297
▁bam	-12298
▁Gebze	-12299
▁serin	-12300
▁Bingöl	-12301
▁ekrana	-12302
▁kentsel	-12303
▁Selçuklu	-12304
▁Arkadaşlar	-12305
▁Ebu	-12306
▁Sayısı	-12307
edin	-12308
▁emri	-12309
▁mesai	-12310
▁Marmar	-12311
▁Olağan	-12312
▁sevdiğim	-12313
▁geçirildi	-12314
▁tedbirler	-12315
▁günlerinde	-12316
▁Pe	-12317
erkan	-12318
▁aynen	-12319
▁kanalı	-12320
▁sayısız	-12321
cim	-12322
lash	-12323
▁köpr	-12324
▁buçuk	-12325
▁yönünden	-12326
▁karşınıza	-12327
cam	-12328
duat	-12329
▁Anti	-12330
luğuna	-12331
▁seans	-12332
▁iyilik	-12333
▁Mesleki	-12334
▁etkisiz	-12335
▁sayılan	-12336
▁verildiği	-12337
ahit	-12338
▁Kabul	-12339
▁Siyasi	-12340
▁butonuna	-12341
▁mükellef	-12342
▁taşımaktadır	-12343
..."	-12344
▁örn	-12345
lektaş	-12346
▁Katar	-12347
▁branş	-12348
▁Bedava	-12349
▁elimizden	-12350
▁yüksektir	-12351
▁yararlanmak	-12352
▁Rom	-12353
▁Kaza	-12354
▁Hekim	-12355
▁İlhan	-12356
biyotik	-12357
▁gösterge	-12358
▁havayolu	-12359
▁olasılık	-12360
▁sonuçlarını	-12361
adışı	-12362
▁AÇIK	-12363
▁Kole	-12364
▁nisp	-12365
▁Ersoy	-12366
▁müzaker	-12367
▁motivasyon	-12368
RE	-12369
iğde	-12370
üzün	-12371
▁artarak	-12372
▁enerjisi	-12373
▁başlaması	-12374
▁hizmetini	-12375
▁Özbek	-12376
▁editör	-12377
▁etmeyen	-12378
▁dışarıda	-12379
▁evrensel	-12380
▁vatandaşın	-12381
▁teknolojileri	-12382
▁doğrultu	-12383
▁öneriler	-12384
▁şunlardır	-12385
8)	-12386
inat	-12387
▁sıç	-12388
▁Anlaş	-12389
▁Yerli	-12390
▁hücre	-12391
▁Arnavut	-12392
▁etkileşim	-12393
kusuz	-12394
▁Çağrı	-12395
au	-12396
oza	-12397
ule	-12398
▁kılı	-12399
▁ünit	-12400
▁memuru	-12401
▁altından	-12402
SUN	-12403
▁Büt	-12404
▁Akif	-12405
▁içme	-12406
lilere	-12407
▁BÜYÜK	-12408
▁doğdu	-12409
▁kayak	-12410
▁Çerez	-12411
▁biçimi	-12412
▁geldim	-12413
▁kazası	-12414
▁saatler	-12415
▁beklentiler	-12416
▁yatırımları	-12417
Kay	-12418
▁Lüb	-12419
▁aksi	-12420
▁kayg	-12421
▁Özer	-12422
mamalı	-12423
acivert	-12424
▁zahmet	-12425
▁iştirak	-12426
▁Çalışan	-12427
▁dersleri	-12428
▁parçalar	-12429
▁uygulamasını	-12430
ll	-12431
ima	-12432
▁eli	-12433
edisi	-12434
▁Evi	-12435
▁Koy	-12436
iaomi	-12437
madde	-12438
üsüne	-12439
▁aktör	-12440
▁arayarak	-12441
▁bölümüne	-12442
▁vurgulan	-12443
değ	-12444
adar	-12445
eğli	-12446
uvarı	-12447
ılımı	-12448
▁ettiğim	-12449
▁üretmek	-12450
▁dışından	-12451
▁SMS	-12452
▁şükür	-12453
▁Bilimleri	-12454
▁çalışıyorum	-12455
▁Pınar	-12456
▁sözleşmeler	-12457
▁uygulanacak	-12458
5'	-12459
ifi	-12460
▁BO	-12461
▁okulu	-12462
▁sorul	-12463
▁yerin	-12464
▁Durumu	-12465
▁dilerim	-12466
▁oldular	-12467
larınızla	-12468
▁yıllarca	-12469
Yar	-12470
▁LED	-12471
▁yepyeni	-12472
▁sahiplerine	-12473
âlâ	-12474
▁%50	-12475
anıza	-12476
▁gezi	-12477
▁bahçe	-12478
▁Sarayı	-12479
▁sağlığını	-12480
Hal	-12481
adağ	-12482
izde	-12483
▁HAL	-12484
▁izmir	-12485
▁İttifak	-12486
▁Ertuğrul	-12487
▁kısmının	-12488
▁opsiyonlar	-12489
ove	-12490
amil	-12491
İNİZ	-12492
▁Düşük	-12493
▁gruplar	-12494
▁bankacılık	-12495
▁gelecektir	-12496
▁maddesinde	-12497
Evet	-12498
▁III	-12499
▁yuk	-12500
akkak	-12501
▁inci	-12502
▁Resul	-12503
▁Fabrik	-12504
▁Evlilik	-12505
▁partner	-12506
▁başladığını	-12507
▁sıralarında	-12508
olik	-12509
kanın	-12510
▁herşey	-12511
▁zamandan	-12512
▁edebilmek	-12513
4)	-12514
▁Rah	-12515
▁dog	-12516
▁virüsü	-12517
▁Silahlı	-12518
▁açabilir	-12519
▁düzenleyen	-12520
▁istediğimiz	-12521
▁kullanıyorum	-12522
flix	-12523
▁maça	-12524
▁Alper	-12525
▁bitim	-12526
▁dolap	-12527
▁Otobüs	-12528
▁gerçekçi	-12529
▁telefonla	-12530
hen	-12531
▁Ağa	-12532
▁patent	-12533
▁prensip	-12534
▁konforlu	-12535
▁çekirdek	-12536
Sağ	-12537
ikli	-12538
king	-12539
▁13.	-12540
▁Çal	-12541
aşehir	-12542
▁bileğ	-12543
▁dosyası	-12544
▁rep	-12545
▁Yeter	-12546
▁salat	-12547
▁senet	-12548
▁kazanmış	-12549
▁çalışmaktadır	-12550
lil	-12551
▁güler	-12552
▁listesinde	-12553
now	-12554
▁rolü	-12555
▁değişir	-12556
▁Komutanı	-12557
▁sistemde	-12558
▁durumları	-12559
▁AC	-12560
site	-12561
▁Vad	-12562
▁Ford	-12563
▁Korun	-12564
▁bazlı	-12565
▁yüzünü	-12566
▁operatör	-12567
▁geçirilen	-12568
▁tarayıcıya	-12569
▁çalıştığını	-12570
dö	-12571
Yap	-12572
leye	-12573
▁görmeye	-12574
▁bulunmuş	-12575
▁konusudur	-12576
▁Wi	-12577
▁Müs	-12578
▁Mert	-12579
▁kaba	-12580
▁Vatan	-12581
▁yeryüz	-12582
▁işareti	-12583
▁yoğunluk	-12584
▁uygulamanın	-12585
▁muz	-12586
▁Elif	-12587
▁kopyal	-12588
▁bazında	-12589
▁kökenli	-12590
▁başlayıp	-12591
▁fiyatının	-12592
▁yapmıştır	-12593
ternational	-12594
YE	-12595
▁alkış	-12596
▁andan	-12597
▁buldum	-12598
▁konumda	-12599
▁yapabileceğiniz	-12600
sc	-12601
luyum	-12602
ments	-12603
▁evli	-12604
▁abone	-12605
▁ayırt	-12606
▁okulda	-12607
▁Haftası	-12608
▁ailesine	-12609
ont	-12610
▁Komitesi	-12611
▁engellemek	-12612
adas	-12613
▁komş	-12614
▁Gülen	-12615
▁Belirt	-12616
▁sendro	-12617
▁Fethiye	-12618
▁demişti	-12619
▁renkler	-12620
▁yaptılar	-12621
în	-12622
▁Sir	-12623
▁kib	-12624
▁olgu	-12625
▁sundu	-12626
▁açarak	-12627
▁bakımdan	-12628
▁gelmişti	-12629
▁yapılırken	-12630
.0	-12631
3'	-12632
▁68	-12633
afet	-12634
▁Stu	-12635
▁hatalı	-12636
▁jandarma	-12637
▁Güvenliği	-12638
▁oc	-12639
▁zan	-12640
▁şen	-12641
▁David	-12642
enlerin	-12643
▁paraya	-12644
▁yükümlü	-12645
sch	-12646
▁ciğer	-12647
▁slogan	-12648
▁Polonya	-12649
▁düzeyinde	-12650
▁önerileri	-12651
▁makineleri	-12652
LEŞ	-12653
▁Show	-12654
▁Super	-12655
larımın	-12656
▁yoksun	-12657
▁savaşın	-12658
▁ml	-12659
▁güb	-12660
▁poş	-12661
▁kılan	-12662
▁İstih	-12663
▁kısalt	-12664
▁destekli	-12665
▁yaşından	-12666
▁sistemler	-12667
▁Önümüzdeki	-12668
PN	-12669
▁keşif	-12670
▁köklü	-12671
▁Körfez	-12672
▁Sizler	-12673
▁görüyorum	-12674
▁programlar	-12675
▁görüntüleri	-12676
MEK	-12677
deler	-12678
▁Akar	-12679
acılar	-12680
▁emlak	-12681
▁kenti	-12682
▁yaşamın	-12683
▁üzüm	-12684
▁İzle	-12685
mayalım	-12686
▁uzmanlar	-12687
▁sunuluyor	-12688
amayacağını	-12689
cer	-12690
▁BÖL	-12691
▁kenara	-12692
▁karşıtı	-12693
lenmiştir	-12694
▁çerçevede	-12695
▁yöneticisi	-12696
dası	-12697
▁aya	-12698
▁otob	-12699
kileri	-12700
ılırsa	-12701
▁hazırlamak	-12702
▁hastalıklar	-12703
▁müşterilerin	-12704
bağ	-12705
▁ret	-12706
▁▁▁▁	-12707
▁değişti	-12708
▁reg	-12709
▁Bırak	-12710
▁katil	-12711
amızdan	-12712
▁teknikleri	-12713
MB	-12714
alp	-12715
deksi	-12716
▁ÖZEL	-12717
▁Posted	-12718
▁anılan	-12719
▁saptan	-12720
▁talebinde	-12721
▁3-4	-12722
▁SOR	-12723
▁suçlu	-12724
▁Bugüne	-12725
▁Raporu	-12726
▁uyarısı	-12727
rd	-12728
▁İc	-12729
▁zev	-12730
▁zarf	-12731
▁Tarifi	-12732
▁döneme	-12733
karahisar	-12734
▁konumunda	-12735
tia	-12736
▁Sky	-12737
astık	-12738
▁neye	-12739
▁GENEL	-12740
▁ölümü	-12741
▁grubun	-12742
inizdeki	-12743
▁bildiği	-12744
▁sorgulama	-12745
▁kazandıran	-12746
pik	-12747
▁Ten	-12748
▁Kayn	-12749
▁yakalay	-12750
▁ziyareti	-12751
▁olmayabilir	-12752
▁DUR	-12753
ünüze	-12754
▁Elem	-12755
▁prov	-12756
hidrat	-12757
▁Ayhan	-12758
▁Mesut	-12759
▁küfür	-12760
acağının	-12761
▁binanın	-12762
▁olmaksızın	-12763
ÜT	-12764
mun	-12765
hael	-12766
tive	-12767
ereum	-12768
▁ederse	-12769
▁sevinç	-12770
▁sorularını	-12771
9)	-12772
hy	-12773
▁THY	-12774
▁Bizans	-12775
▁fındık	-12776
▁bitkisel	-12777
▁yapıyorlar	-12778
▁gerekebilir	-12779
ÜS	-12780
▁Üm	-12781
isim	-12782
itab	-12783
onal	-12784
alığın	-12785
▁Yahud	-12786
▁okudu	-12787
▁yavru	-12788
▁Etiket	-12789
▁Üsküdar	-12790
▁olanlara	-12791
▁arttırmak	-12792
▁alacağınız	-12793
▁Rıza	-12794
▁kutusu	-12795
▁işçilik	-12796
▁çıkaran	-12797
▁taşınmaz	-12798
▁Barcelona	-12799
▁52	-12800
ayınca	-12801
▁ayına	-12802
▁Devrim	-12803
▁hakikat	-12804
▁iddialı	-12805
şar	-12806
▁figür	-12807
▁Umarım	-12808
▁konsan	-12809
ilmesinde	-12810
▁planlama	-12811
▁tir	-12812
talama	-12813
▁adresini	-12814
▁metrekar	-12815
▁ortaklık	-12816
▁kadınları	-12817
▁Ölç	-12818
iğine	-12819
▁girmesi	-12820
▁işlevsel	-12821
▁senesinde	-12822
▁problemleri	-12823
buki	-12824
▁çim	-12825
aydın	-12826
▁ümit	-12827
▁haram	-12828
▁Anayas	-12829
▁aklıma	-12830
▁başarısı	-12831
abilecekleri	-12832
▁Som	-12833
▁İbn	-12834
▁Kurs	-12835
▁ceviz	-12836
▁yüzme	-12837
▁taşımacılık	-12838
▁ALI	-12839
▁şuan	-12840
iğinde	-12841
▁açıktır	-12842
32	-12843
abıta	-12844
emeye	-12845
ımızla	-12846
▁Kaçak	-12847
▁fakir	-12848
▁şoför	-12849
▁dizayn	-12850
▁Seçenek	-12851
▁tesisat	-12852
▁akademisyen	-12853
İMİ	-12854
▁Sof	-12855
▁rev	-12856
esten	-12857
▁saygın	-12858
▁bulunarak	-12859
▁öğretmenler	-12860
une	-12861
▁sez	-12862
ALARI	-12863
▁Seri	-12864
▁takı	-12865
çilere	-12866
ılmalı	-12867
▁toplumu	-12868
▁mülkiyet	-12869
▁va	-12870
vesi	-12871
▁Kod	-12872
diğince	-12873
▁kokusu	-12874
icilerin	-12875
▁doğumlu	-12876
▁belgesel	-12877
▁geçtikçe	-12878
▁listelen	-12879
▁şeylerin	-12880
▁kazandığı	-12881
▁yapabilmek	-12882
▁yaptığımda	-12883
▁ON	-12884
örek	-12885
▁Rez	-12886
▁izn	-12887
▁pul	-12888
siyum	-12889
▁Sert	-12890
▁oyuncunun	-12891
pol	-12892
▁ha	-12893
▁Lit	-12894
chain	-12895
irmen	-12896
▁adap	-12897
istiyan	-12898
▁entegr	-12899
▁adayları	-12900
▁başlangı	-12901
▁59	-12902
▁Rep	-12903
▁İLK	-12904
▁yaşı	-12905
ınızla	-12906
▁Biden	-12907
▁yatan	-12908
▁miting	-12909
▁yazıyı	-12910
▁Şiddet	-12911
▁şehirler	-12912
END	-12913
▁Hon	-12914
▁İçinde	-12915
▁katliam	-12916
▁Demokrasi	-12917
rü	-12918
sir	-12919
hare	-12920
▁çeyr	-12921
ileceği	-12922
▁bağımlı	-12923
▁Herkesin	-12924
▁eğitimin	-12925
▁fotoğraflar	-12926
▁sahiplerinin	-12927
AMAN	-12928
idor	-12929
BİTAK	-12930
▁birç	-12931
▁Erkan	-12932
ılmadan	-12933
▁mesele	-12934
▁takıma	-12935
▁kapanış	-12936
▁sevindir	-12937
elerindeki	-12938
▁temizleme	-12939
▁çözümleri	-12940
▁66	-12941
▁pır	-12942
▁Nuri	-12943
▁yemin	-12944
▁zanlı	-12945
▁halkına	-12946
▁yaşanıyor	-12947
LAH	-12948
ico	-12949
▁Acı	-12950
▁asfalt	-12951
▁Performan	-12952
▁dayanışma	-12953
CD	-12954
SM	-12955
opi	-12956
atma	-12957
tent	-12958
▁Sonuçta	-12959
▁çalışın	-12960
▁belirtiyor	-12961
mî	-12962
Rus	-12963
rap	-12964
▁DÖN	-12965
▁süp	-12966
ektro	-12967
etooth	-12968
▁Belli	-12969
▁Kursu	-12970
▁kararın	-12971
▁gönderdiği	-12972
ECE	-12973
▁çadır	-12974
▁Piyasa	-12975
▁Akşener	-12976
▁sıralan	-12977
▁diğerleri	-12978
▁programda	-12979
ONOM	-12980
▁seti	-12981
ıcılar	-12982
▁MADDE	-12983
▁Kısaca	-12984
▁yaşına	-12985
unlu	-12986
▁temp	-12987
▁seçmek	-12988
▁Albayrak	-12989
▁katılacak	-12990
▁barındıran	-12991
▁başkanları	-12992
ref	-12993
uvv	-12994
▁stad	-12995
▁Macar	-12996
▁partisi	-12997
▁düşünerek	-12998
ADA	-12999
▁Ba	-13000
▁Çiğ	-13001
ruklu	-13002
▁Günün	-13003
▁Sinop	-13004
▁emzir	-13005
▁keyfi	-13006
▁çanta	-13007
▁sınava	-13008
▁Şırnak	-13009
▁Şehircilik	-13010
▁yönetiminde	-13011
▁açıklamaları	-13012
üphe	-13013
▁Yem	-13014
▁çocuğa	-13015
▁metabol	-13016
▁kelimeler	-13017
▁oluşturulması	-13018
yah	-13019
imal	-13020
▁açın	-13021
▁cuma	-13022
▁Alınan	-13023
▁filmler	-13024
▁çıkmaya	-13025
▁önemine	-13026
▁ediyordu	-13027
▁yüzyılın	-13028
▁dikkatini	-13029
▁olursanız	-13030
▁Temsilcisi	-13031
▁Müst	-13032
▁kont	-13033
▁ayağa	-13034
▁aileler	-13035
▁erkeklerin	-13036
müştü	-13037
▁çektiği	-13038
rul	-13039
▁UR	-13040
Genel	-13041
▁siber	-13042
▁satmak	-13043
▁soruların	-13044
▁mam	-13045
barek	-13046
▁Zeki	-13047
▁katma	-13048
▁sigortalı	-13049
▁unutulmaz	-13050
▁olmadığına	-13051
anz	-13052
osa	-13053
ute	-13054
▁Hor	-13055
inler	-13056
▁Şimd	-13057
▁Burcu	-13058
ovasyon	-13059
▁seçildi	-13060
▁önündeki	-13061
ody	-13062
▁aşan	-13063
▁burs	-13064
▁katkısı	-13065
▁değişiyor	-13066
▁99	-13067
▁kurallara	-13068
▁çocuklarının	-13069
calan	-13070
yetik	-13071
▁gölg	-13072
▁hayv	-13073
▁maks	-13074
▁Neyse	-13075
▁inter	-13076
memiştir	-13077
lediğimiz	-13078
▁sayıları	-13079
▁etmelisiniz	-13080
ott	-13081
▁oz	-13082
▁enj	-13083
▁koç	-13084
▁YORUM	-13085
▁kandır	-13086
▁korkut	-13087
▁yıldön	-13088
▁Bisiklet	-13089
ifor	-13090
▁hic	-13091
▁meb	-13092
▁öfk	-13093
▁Lider	-13094
▁karlı	-13095
▁kurut	-13096
▁ligde	-13097
▁nasip	-13098
▁refah	-13099
▁değinen	-13100
▁rastgele	-13101
asite	-13102
ahtarı	-13103
▁akışı	-13104
▁İddaa	-13105
▁Yolları	-13106
▁aylarda	-13107
lediğiniz	-13108
▁fiyatlarının	-13109
▁Amir	-13110
▁kurt	-13111
kurmay	-13112
▁dinlem	-13113
▁çıkarma	-13114
▁güzergah	-13115
▁toplumda	-13116
▁MES	-13117
▁yeme	-13118
▁Yahudi	-13119
▁yurttaş	-13120
▁üstelik	-13121
▁suçundan	-13122
▁bozukluğu	-13123
tına	-13124
▁şifre	-13125
▁sonuca	-13126
▁bölgelerinde	-13127
▁çalışmalarında	-13128
pi	-13129
Yıl	-13130
▁vermeyi	-13131
▁yürüten	-13132
▁çocuklarda	-13133
ünt	-13134
▁00	-13135
▁FI	-13136
▁akrab	-13137
▁fakült	-13138
▁kazanmaya	-13139
▁edilmesine	-13140
▁Dalı	-13141
▁Mezar	-13142
▁acent	-13143
▁komik	-13144
▁Oluştur	-13145
▁ışığında	-13146
▁cihazları	-13147
▁dünyasına	-13148
▁kararının	-13149
▁kurulmuştur	-13150
adişah	-13151
▁param	-13152
▁Rehber	-13153
▁Aşağıda	-13154
▁tanımak	-13155
so	-13156
lana	-13157
▁Kötü	-13158
▁Puan	-13159
▁saray	-13160
hendisi	-13161
▁çıkışı	-13162
▁istemiyor	-13163
▁ziyaretçi	-13164
▁3,	-13165
▁Meg	-13166
▁Tap	-13167
▁fas	-13168
cript	-13169
▁Mekt	-13170
emediği	-13171
▁Mobilya	-13172
▁zamanın	-13173
▁Kurtuluş	-13174
▁pasaport	-13175
▁hizmetine	-13176
▁LG	-13177
uzun	-13178
ERKEZ	-13179
▁iPad	-13180
onavir	-13181
▁ilkokul	-13182
▁Erkekler	-13183
▁Transfer	-13184
▁açılacak	-13185
-25	-13186
ement	-13187
likdüzü	-13188
▁eklemek	-13189
▁kimliği	-13190
eceğinizi	-13191
▁işçilerin	-13192
▁koalisyon	-13193
▁istihbarat	-13194
▁verecektir	-13195
Kon	-13196
edd	-13197
▁tet	-13198
▁Faiz	-13199
▁yirmi	-13200
▁eserler	-13201
▁meraklı	-13202
▁Kongresi	-13203
▁CN	-13204
alaş	-13205
▁muaf	-13206
▁akşamı	-13207
▁tezgah	-13208
▁sıkıştır	-13209
▁desteğiyle	-13210
▁Lok	-13211
acının	-13212
▁Dilek	-13213
▁muayen	-13214
▁başarıya	-13215
▁şimdilik	-13216
▁NED	-13217
▁PTT	-13218
▁King	-13219
▁Volkan	-13220
▁burası	-13221
▁düşmesi	-13222
▁işçiler	-13223
▁Etkinlik	-13224
▁cumhuriyet	-13225
iyo	-13226
▁Ren	-13227
▁Zey	-13228
aleti	-13229
▁eminim	-13230
▁termin	-13231
▁bırakan	-13232
▁tekstil	-13233
▁Sekreter	-13234
▁bölgesine	-13235
▁kanalları	-13236
▁oynanacak	-13237
▁şeklindeki	-13238
Hz	-13239
TER	-13240
▁180	-13241
▁Cur	-13242
▁Dom	-13243
▁gözle	-13244
▁bekler	-13245
▁Pakistan	-13246
▁durumdur	-13247
▁açıklayan	-13248
▁çalışmayı	-13249
▁Cal	-13250
▁Donald	-13251
▁akciğer	-13252
▁başkent	-13253
At	-13254
tle	-13255
esör	-13256
umda	-13257
▁Deri	-13258
▁Planı	-13259
▁ortal	-13260
▁Konser	-13261
▁güvence	-13262
▁Edinilen	-13263
▁konuşmak	-13264
▁Geleneksel	-13265
▁sıkıntılar	-13266
▁from	-13267
▁İsmet	-13268
▁toptan	-13269
▁desteğini	-13270
SI	-13271
▁fl	-13272
▁ÜN	-13273
▁Muş	-13274
▁pist	-13275
▁Yanlış	-13276
▁farklıdır	-13277
▁sorunlara	-13278
leştirilmiş	-13279
MEN	-13280
▁OT	-13281
opol	-13282
▁Lef	-13283
azzam	-13284
▁neyse	-13285
▁dostluk	-13286
▁istismar	-13287
▁nemlendir	-13288
şk	-13289
iba	-13290
▁IQ	-13291
▁Nam	-13292
▁car	-13293
▁kare	-13294
imiyet	-13295
▁Amasya	-13296
▁formül	-13297
lamıştır	-13298
▁yönetmelik	-13299
▁çalışmalarda	-13300
▁20'	-13301
▁Nok	-13302
ersen	-13303
▁TEKN	-13304
▁gönl	-13305
▁herş	-13306
▁tatb	-13307
▁Yemen	-13308
▁söyleş	-13309
▁ödemek	-13310
▁this	-13311
▁başını	-13312
▁kurşun	-13313
▁komutan	-13314
▁oranını	-13315
▁birisidir	-13316
▁bulunmakta	-13317
gusu	-13318
▁Listesi	-13319
▁bitkiler	-13320
▁istemeyen	-13321
▁kullanmayı	-13322
anç	-13323
deres	-13324
▁Tatar	-13325
▁metot	-13326
▁Burdur	-13327
▁Internet	-13328
▁Kooperatif	-13329
▁İM	-13330
▁tayin	-13331
▁şebek	-13332
elerdeki	-13333
mayacağını	-13334
▁çalışarak	-13335
tiz	-13336
İlk	-13337
ınç	-13338
▁cor	-13339
▁konumu	-13340
▁faydası	-13341
▁yönündeki	-13342
▁alanındaki	-13343
▁piyasalarda	-13344
▁işlemlerinizi	-13345
▁MP	-13346
▁All	-13347
▁HES	-13348
▁Merk	-13349
▁Hrist	-13350
▁masaya	-13351
▁herhalde	-13352
▁üreticisi	-13353
GÜN	-13354
izme	-13355
▁Kimi	-13356
▁Yücel	-13357
▁seyred	-13358
▁Netflix	-13359
▁anlaşılır	-13360
▁Kesinlikle	-13361
▁direksiyon	-13362
atta	-13363
▁van	-13364
değer	-13365
ilmeden	-13366
SEL	-13367
fin	-13368
hem	-13369
▁atak	-13370
▁grev	-13371
▁trib	-13372
eliğin	-13373
▁ihrac	-13374
▁Buradaki	-13375
▁DH	-13376
biye	-13377
▁past	-13378
▁Nihat	-13379
▁Toplu	-13380
▁Mahalle	-13381
▁görevden	-13382
▁sayısına	-13383
siyle	-13384
▁filmde	-13385
▁gelmeye	-13386
▁kurumun	-13387
▁yapalım	-13388
▁okullarda	-13389
▁doğrultuda	-13390
▁şirketinin	-13391
▁müşterilerimize	-13392
▁IN	-13393
▁TT	-13394
ekül	-13395
ibil	-13396
▁hür	-13397
▁neyi	-13398
▁taktik	-13399
▁fazladır	-13400
▁yazıları	-13401
▁çıkardığı	-13402
abir	-13403
adüf	-13404
▁kuz	-13405
dayım	-13406
lıklı	-13407
▁Alım	-13408
▁nice	-13409
▁Store	-13410
▁özenle	-13411
▁Boğaziçi	-13412
SE	-13413
pas	-13414
▁5-	-13415
▁that	-13416
▁deyip	-13417
▁donan	-13418
▁start	-13419
amaması	-13420
▁koyduğu	-13421
▁çalışacak	-13422
▁50'	-13423
▁öte	-13424
▁Denet	-13425
▁Köpek	-13426
▁kızıl	-13427
▁tebliğ	-13428
▁verdiler	-13429
▁tadı	-13430
liyesi	-13431
▁terap	-13432
▁yapanlar	-13433
▁Bilgileri	-13434
▁Vİ	-13435
ININ	-13436
ater	-13437
▁Yel	-13438
linin	-13439
▁Dede	-13440
▁yönü	-13441
▁Kafkas	-13442
▁boşanma	-13443
▁eskiden	-13444
▁Yukarıdaki	-13445
▁kuruluşlar	-13446
kurt	-13447
▁müf	-13448
▁Ziya	-13449
▁titr	-13450
▁benzin	-13451
▁adayların	-13452
▁eğitimler	-13453
Doğ	-13454
▁ge	-13455
anızın	-13456
▁alanın	-13457
▁Ürünler	-13458
▁yuvarlak	-13459
▁dayanarak	-13460
▁olduğumuzu	-13461
▁nar	-13462
▁Hint	-13463
▁mart	-13464
▁ödün	-13465
▁eğlenc	-13466
▁sesini	-13467
▁anayasa	-13468
▁noktalar	-13469
▁vermiyor	-13470
…………	-13471
▁DEM	-13472
▁Tec	-13473
▁ded	-13474
▁Adayı	-13475
▁yurtdışı	-13476
▁Stok	-13477
▁Eylem	-13478
▁Eğlen	-13479
▁makar	-13480
▁renkleri	-13481
▁başlatıldı	-13482
▁koşullarda	-13483
▁77	-13484
ikar	-13485
▁duş	-13486
mediğ	-13487
▁norm	-13488
▁zann	-13489
▁Değil	-13490
▁öneri	-13491
▁Çekici	-13492
▁sokakta	-13493
▁bilmeniz	-13494
▁garantisi	-13495
yumu	-13496
aryak	-13497
▁Yüzde	-13498
▁açısı	-13499
▁ilçede	-13500
▁çıkmaz	-13501
▁diyabet	-13502
▁sezonun	-13503
▁taraflı	-13504
▁personelin	-13505
33	-13506
opar	-13507
▁HAKK	-13508
▁çoktan	-13509
▁güvenle	-13510
▁konusuna	-13511
▁hükümleri	-13512
▁temelinde	-13513
maca	-13514
▁Oca	-13515
▁Masa	-13516
▁göndermek	-13517
▁yetkililer	-13518
▁up	-13519
diki	-13520
ASYON	-13521
laşan	-13522
▁Araba	-13523
▁zorla	-13524
▁Grafik	-13525
▁açıyor	-13526
▁Ethereum	-13527
▁hırsızlık	-13528
▁meslektaş	-13529
▁miyim	-13530
▁Lübnan	-13531
▁kazanc	-13532
▁tekniği	-13533
▁animasyon	-13534
▁Eyl	-13535
▁Ulus	-13536
▁kabl	-13537
ebilme	-13538
▁kolon	-13539
▁kızın	-13540
▁tarihin	-13541
▁bilgisini	-13542
nes	-13543
gener	-13544
▁ilke	-13545
▁saçma	-13546
▁Engelli	-13547
▁yıldızı	-13548
Gör	-13549
imer	-13550
▁11'	-13551
▁Bed	-13552
tuğunu	-13553
▁dokuz	-13554
▁Xiaomi	-13555
▁yılını	-13556
▁isminin	-13557
lenmesine	-13558
▁otelleri	-13559
MI	-13560
pir	-13561
işan	-13562
▁pis	-13563
▁sürümü	-13564
▁oynuyor	-13565
▁ödemesi	-13566
▁zihniyet	-13567
▁imkanları	-13568
▁karakteri	-13569
ix	-13570
Öğr	-13571
▁SAT	-13572
çelik	-13573
▁gittik	-13574
▁kullanımını	-13575
NET	-13576
esk	-13577
ezz	-13578
fiye	-13579
▁Hel	-13580
▁harç	-13581
▁Plastik	-13582
▁tarafın	-13583
▁başlangıc	-13584
▁kendiliğinden	-13585
▁Hepsi	-13586
▁Ticari	-13587
▁olunur	-13588
▁Pandemi	-13589
▁sorumludur	-13590
OF	-13591
get	-13592
▁deh	-13593
▁asır	-13594
▁Kenan	-13595
▁önems	-13596
▁ışığı	-13597
ozisyon	-13598
▁Sayılı	-13599
▁hizmetin	-13600
▁yenileme	-13601
▁faktörler	-13602
▁olasılığı	-13603
▁vereceğiz	-13604
▁yapılabilecek	-13605
1]	-13606
”,	-13607
▁1)	-13608
ning	-13609
iliğini	-13610
▁tutulması	-13611
▁seçimlerinde	-13612
âtın	-13613
▁Ata	-13614
Büyük	-13615
▁Kartı	-13616
▁Karbon	-13617
▁heyeti	-13618
▁deneyin	-13619
▁sorumlusu	-13620
▁Vur	-13621
▁play	-13622
adılar	-13623
▁Organize	-13624
ble	-13625
usuyla	-13626
▁kursu	-13627
▁yönden	-13628
tığınızda	-13629
▁İlanları	-13630
==	-13631
ida	-13632
▁Yur	-13633
▁Tart	-13634
▁koyan	-13635
▁sergi	-13636
▁ruhsal	-13637
▁okumaya	-13638
▁getirmiş	-13639
▁ız	-13640
▁15.	-13641
▁muv	-13642
ıyaka	-13643
▁bini	-13644
▁Serkan	-13645
▁kıskan	-13646
▁şekeri	-13647
▁yaralanan	-13648
▁mağduriyet	-13649
▁(%	-13650
▁ba	-13651
▁Ram	-13652
laşmış	-13653
▁Anlam	-13654
▁senary	-13655
▁Değiştir	-13656
ny	-13657
isy	-13658
tüd	-13659
ırsa	-13660
▁atıyor	-13661
▁düştüğ	-13662
▁heyecanlı	-13663
ila	-13664
▁Kos	-13665
▁Amel	-13666
▁Hayal	-13667
▁irtib	-13668
▁Yazılar	-13669
▁çalışmada	-13670
▁çalışanlarının	-13671
âd	-13672
▁ömrü	-13673
▁İhsan	-13674
▁Kırşehir	-13675
▁verilere	-13676
▁mesajları	-13677
▁App	-13678
▁siv	-13679
▁mütte	-13680
çekmece	-13681
▁Denizi	-13682
▁SAĞLIK	-13683
▁çektir	-13684
▁Şimşek	-13685
▁hastası	-13686
▁hızlıca	-13687
ANA	-13688
ned	-13689
▁pl	-13690
▁sipar	-13691
▁gemisi	-13692
▁Bilimler	-13693
▁hedefliyor	-13694
▁gerektiğinde	-13695
UNU	-13696
dış	-13697
peri	-13698
▁OLDU	-13699
▁erit	-13700
▁Başta	-13701
▁Klima	-13702
▁heves	-13703
ılacağı	-13704
▁Hikmet	-13705
▁hastalarda	-13706
ÜLT	-13707
ELİK	-13708
▁Cer	-13709
▁gor	-13710
▁Derin	-13711
▁abart	-13712
▁hukuka	-13713
▁çözüme	-13714
▁Demirel	-13715
▁Oldukça	-13716
▁lisanslı	-13717
▁kadarıyla	-13718
▁Teh	-13719
▁atmış	-13720
▁Açılış	-13721
▁Trakya	-13722
▁dengeli	-13723
▁tarımsal	-13724
▁Yarışması	-13725
▁edersiniz	-13726
▁kaldığını	-13727
▁geçebilirsiniz	-13728
-03	-13729
calı	-13730
emde	-13731
iews	-13732
▁Mol	-13733
▁arı	-13734
▁Tekin	-13735
▁bahsede	-13736
▁Ku	-13737
▁(3)	-13738
▁Dizi	-13739
▁izler	-13740
▁Kitabı	-13741
▁sınavı	-13742
▁konusunu	-13743
▁olabilmek	-13744
▁videoları	-13745
▁kaybettiği	-13746
igh	-13747
▁112	-13748
▁14.	-13749
▁frek	-13750
▁Niğde	-13751
▁Tören	-13752
▁tesisi	-13753
▁Değerlendirme	-13754
duc	-13755
▁TSK	-13756
antel	-13757
başka	-13758
mamızı	-13759
▁kaçan	-13760
▁arayın	-13761
▁tarama	-13762
▁umarım	-13763
▁çalışanı	-13764
▁malzemesi	-13765
▁sayısında	-13766
▁piyasasının	-13767
Man	-13768
ian	-13769
turk	-13770
lareli	-13771
▁ferah	-13772
▁MERKEZ	-13773
▁Yıllık	-13774
▁yapmaz	-13775
ınızdaki	-13776
▁tutuyor	-13777
▁Açıklama	-13778
▁ağırlığı	-13779
▁dereceye	-13780
▁Mühendisliği	-13781
▁Set	-13782
Bizim	-13783
▁kala	-13784
▁İhale	-13785
▁algorit	-13786
▁indirmek	-13787
▁konuşuyor	-13788
Geç	-13789
nal	-13790
lının	-13791
▁Hatır	-13792
▁sensör	-13793
abildiği	-13794
▁ilaçlama	-13795
▁fırsatlar	-13796
▁olumsuzluk	-13797
▁bulundukları	-13798
SYM	-13799
barı	-13800
▁pazarı	-13801
▁teknolojinin	-13802
odik	-13803
▁burç	-13804
▁simg	-13805
dükten	-13806
▁birde	-13807
▁önünü	-13808
▁şehre	-13809
▁ordusu	-13810
▁Matematik	-13811
nur	-13812
▁%10	-13813
▁abi	-13814
▁ceh	-13815
oları	-13816
▁şüphe	-13817
▁güçlük	-13818
▁köyünde	-13819
▁çocukluk	-13820
▁PDF	-13821
▁sark	-13822
▁Saygı	-13823
▁Taksim	-13824
urlar	-13825
▁Altı	-13826
▁şamp	-13827
▁Yarat	-13828
▁işver	-13829
▁sürat	-13830
▁tahvil	-13831
ockchain	-13832
▁Malzeme	-13833
▁yerlerden	-13834
▁olduğunuzu	-13835
▁ekiplerinin	-13836
AYI	-13837
fte	-13838
▁Us	-13839
limi	-13840
▁100'	-13841
emiştir	-13842
▁oluruz	-13843
▁niteliği	-13844
▁vereceği	-13845
Ama	-13846
allı	-13847
▁yoğurt	-13848
▁Göztepe	-13849
,...	-13850
▁Metro	-13851
▁sarım	-13852
▁çılgın	-13853
▁değerinde	-13854
▁sitelerine	-13855
▁ülkelerinde	-13856
▁ilgilendiren	-13857
Mar	-13858
▁KR	-13859
▁Kalı	-13860
▁etnik	-13861
▁mısır	-13862
▁terim	-13863
▁bekley	-13864
▁planları	-13865
▁verdiğiniz	-13866
▁Gayrimenkul	-13867
erg	-13868
▁Cel	-13869
▁dram	-13870
▁Deprem	-13871
▁Ereğli	-13872
▁arındır	-13873
▁belirtir	-13874
▁Meş	-13875
▁Adil	-13876
▁Arif	-13877
▁YÖNET	-13878
▁ekranı	-13879
▁araştırmaya	-13880
▁fos	-13881
▁İlg	-13882
▁sahaya	-13883
▁ayrılık	-13884
▁görmesi	-13885
▁üreticiler	-13886
füm	-13887
tiş	-13888
üsk	-13889
▁staj	-13890
▁Emine	-13891
▁pembe	-13892
▁çalıştık	-13893
▁1-0	-13894
▁biten	-13895
▁gidin	-13896
▁zararı	-13897
▁davanın	-13898
▁Kürdistan	-13899
▁devamında	-13900
▁kazançlar	-13901
▁yakınları	-13902
▁CD	-13903
▁fiş	-13904
lediğ	-13905
▁Oper	-13906
▁Ozan	-13907
▁full	-13908
▁keşf	-13909
incisi	-13910
▁Neler	-13911
▁TÜBİTAK	-13912
▁dolaylı	-13913
▁kadrosu	-13914
▁sektöre	-13915
▁değerinin	-13916
▁durumunun	-13917
▁paylaşımı	-13918
▁gördüğümüz	-13919
▁özelliklerine	-13920
jan	-13921
ool	-13922
vivor	-13923
▁Paul	-13924
▁skan	-13925
oroloji	-13926
▁öneririz	-13927
▁Akademisi	-13928
▁sınıflandır	-13929
5/	-13930
asu	-13931
burt	-13932
itor	-13933
▁Ala	-13934
▁yut	-13935
Beğen	-13936
▁durul	-13937
▁eklent	-13938
▁kalori	-13939
▁Güvenli	-13940
▁çalıştım	-13941
▁hesaplama	-13942
OBİ	-13943
▁sürer	-13944
▁kaleci	-13945
▁Parlament	-13946
▁versiyonu	-13947
▁Müslümanlar	-13948
▁seviyesinin	-13949
enter	-13950
ukatı	-13951
▁yüce	-13952
▁masal	-13953
▁nişan	-13954
▁görevine	-13955
▁vatandaşları	-13956
Ör	-13957
▁}	-13958
koz	-13959
▁74	-13960
▁Ayak	-13961
▁ibar	-13962
▁İkti	-13963
cileri	-13964
▁Karat	-13965
▁YAPIL	-13966
▁denge	-13967
▁versin	-13968
▁edinmek	-13969
▁engeller	-13970
▁yapısını	-13971
baz	-13972
şir	-13973
erik	-13974
▁Nüf	-13975
dirme	-13976
▁Urfa	-13977
▁yürü	-13978
▁Yapım	-13979
▁gününe	-13980
▁konudaki	-13981
▁saatlerde	-13982
▁özgürlüğü	-13983
▁Yönetmelik	-13984
dis	-13985
tas	-13986
reat	-13987
▁21.	-13988
▁Mül	-13989
▁elma	-13990
▁Mekan	-13991
▁kırıl	-13992
▁istemiş	-13993
▁otomotiv	-13994
▁eğitimleri	-13995
Bey	-13996
sor	-13997
▁Pl	-13998
▁Bosna	-13999
▁nihai	-14000
▁Kariyer	-14001
acağımızı	-14002
▁istikamet	-14003
▁yarısında	-14004
▁oluşturmaktadır	-14005
▁72	-14006
diğin	-14007
▁Group	-14008
▁içindir	-14009
▁mısınız	-14010
ilebilecek	-14011
▁yemekleri	-14012
▁alınabilir	-14013
-06	-14014
koş	-14015
abah	-14016
▁Müş	-14017
▁lif	-14018
iyorsa	-14019
▁Antal	-14020
▁Basit	-14021
▁sözünü	-14022
▁Michael	-14023
▁patlama	-14024
▁Yazarlar	-14025
▁sorulara	-14026
▁kaynaklar	-14027
▁atom	-14028
▁Sinem	-14029
▁nüfusu	-14030
▁yürütül	-14031
▁başlayın	-14032
▁geçtiğini	-14033
▁7'	-14034
çiliği	-14035
▁Tablo	-14036
▁hikmet	-14037
lamasına	-14038
▁oyununu	-14039
▁Çankaya	-14040
▁Faaliyet	-14041
▁seçilmiş	-14042
▁bonusları	-14043
▁başladılar	-14044
cül	-14045
fir	-14046
▁mühim	-14047
▁kötülük	-14048
▁İlişkin	-14049
▁alanlara	-14050
▁anlatmaya	-14051
GUL	-14052
Yaş	-14053
tag	-14054
▁Oyn	-14055
▁feth	-14056
▁dönüp	-14057
▁Option	-14058
▁karşıt	-14059
Yer	-14060
ıla	-14061
▁aza	-14062
▁sef	-14063
▁Rahat	-14064
▁adrese	-14065
▁dersler	-14066
▁tahmini	-14067
▁trilyon	-14068
▁yapının	-14069
▁kalmadan	-14070
▁muhakkak	-14071
▁salgının	-14072
▁hizmetlerinin	-14073
7/	-14074
ew	-14075
-05	-14076
mod	-14077
▁Ayv	-14078
▁Eki	-14079
▁klasör	-14080
▁süreyle	-14081
abilmeleri	-14082
▁değişiklikleri	-14083
▁sağlanmaktadır	-14084
75	-14085
Par	-14086
▁cir	-14087
ülten	-14088
▁flaş	-14089
▁meme	-14090
▁poli	-14091
▁Hisse	-14092
▁malum	-14093
▁Emekli	-14094
▁çirkin	-14095
▁bireyin	-14096
▁oyunlarını	-14097
ds	-14098
dedi	-14099
▁Kep	-14100
▁Vir	-14101
▁Beden	-14102
▁parit	-14103
▁alınıp	-14104
▁atıldı	-14105
leştirmek	-14106
▁hesabını	-14107
▁sektörüne	-14108
cay	-14109
nel	-14110
▁DO	-14111
▁Na	-14112
yapı	-14113
▁Ltd	-14114
▁Sizi	-14115
▁oruç	-14116
enizde	-14117
▁ümmet	-14118
▁Genelkurmay	-14119
▁görüp	-14120
▁aradan	-14121
▁merakla	-14122
▁okullar	-14123
▁tarihini	-14124
▁örnekler	-14125
▁kullanmanız	-14126
Böl	-14127
OLOJ	-14128
ebet	-14129
▁Küb	-14130
kadir	-14131
▁Mars	-14132
larımla	-14133
▁Çelebi	-14134
▁gelmedi	-14135
ush	-14136
▁YOK	-14137
▁kilis	-14138
▁masum	-14139
▁koyuyor	-14140
▁seminer	-14141
▁yetkisi	-14142
▁söyledik	-14143
▁Olimpiyat	-14144
▁kooperatif	-14145
ita	-14146
▁ur	-14147
cess	-14148
meme	-14149
▁Ris	-14150
▁Çap	-14151
▁şap	-14152
▁sütü	-14153
▁misin	-14154
▁Sevgil	-14155
▁HABERLER	-14156
▁uzmanları	-14157
▁yapmaktan	-14158
▁ilişkilerin	-14159
▁kullanırken	-14160
6/	-14161
▁95	-14162
▁ov	-14163
____	-14164
▁Fre	-14165
▁Vef	-14166
▁Göre	-14167
▁ertesi	-14168
▁Güneydoğu	-14169
Şu	-14170
wood	-14171
acakları	-14172
▁hatalar	-14173
▁öğrenin	-14174
▁incelemek	-14175
▁yerlerinde	-14176
▁İstatistik	-14177
Kul	-14178
Siz	-14179
▁BEN	-14180
▁DER	-14181
▁Sec	-14182
▁Zel	-14183
organ	-14184
▁Lirası	-14185
▁işyeri	-14186
▁yarattı	-14187
▁Jet	-14188
▁afet	-14189
▁varol	-14190
▁çıkarken	-14191
▁kurtarmak	-14192
▁Demokratik	-14193
▁programını	-14194
ırız	-14195
▁Big	-14196
▁TOKİ	-14197
▁TARİH	-14198
▁irtibat	-14199
▁takılan	-14200
▁biletleri	-14201
▁ülkelerden	-14202
▁gene	-14203
▁modül	-14204
▁tehdi	-14205
▁teşeb	-14206
feransı	-14207
mayacağı	-14208
▁onaylan	-14209
▁nedenlerle	-14210
ilmi	-14211
lenecek	-14212
▁Başarı	-14213
▁patron	-14214
▁yüklem	-14215
▁görünüş	-14216
tüel	-14217
▁Dini	-14218
▁acım	-14219
▁sosy	-14220
▁aşısı	-14221
aryakıt	-14222
▁alanların	-14223
▁Hıristiyan	-14224
▁potansiyeli	-14225
IV	-14226
▁hiper	-14227
▁Yapımı	-14228
▁gelebilecek	-14229
söz	-14230
▁TES	-14231
▁İkin	-14232
▁gezin	-14233
▁güreş	-14234
▁olayda	-14235
▁sözlük	-14236
▁sunmaya	-14237
▁seslendir	-14238
sy	-14239
Spor	-14240
raft	-14241
▁Wal	-14242
▁YOL	-14243
▁Hediye	-14244
▁diyelim	-14245
▁gizlilik	-14246
▁seferber	-14247
▁imparator	-14248
▁faaliyetlerine	-14249
ezik	-14250
üfer	-14251
▁KOR	-14252
ettin	-14253
ünist	-14254
▁boşa	-14255
▁teşh	-14256
abinde	-14257
▁okuyun	-14258
▁gözleri	-14259
▁projede	-14260
▁ölçekli	-14261
▁askerlik	-14262
▁cümleler	-14263
▁sezonunda	-14264
▁verebilirsiniz	-14265
ento	-14266
ected	-14267
▁İnönü	-14268
▁Zengin	-14269
▁geliri	-14270
▁gökyüz	-14271
▁kaldık	-14272
eteriner	-14273
▁olabildiğince	-14274
4/	-14275
act	-14276
▁Erc	-14277
▁Lav	-14278
▁suçu	-14279
▁Taşın	-14280
▁aylar	-14281
▁olana	-14282
........	-14283
▁muazzam	-14284
▁kazançlı	-14285
▁kelimesi	-14286
REN	-14287
eya	-14288
▁Sy	-14289
▁eng	-14290
▁fren	-14291
▁boşan	-14292
▁seksi	-14293
▁yağışı	-14294
▁eleştiri	-14295
▁muhasebe	-14296
▁piyasanın	-14297
▁toplantıya	-14298
▁But	-14299
akkab	-14300
▁omur	-14301
▁Selam	-14302
▁annem	-14303
▁iştah	-14304
lanmaya	-14305
▁tatili	-14306
▁dizinin	-14307
▁dönüyor	-14308
▁edebileceğiniz	-14309
▁Geor	-14310
▁Meral	-14311
▁İleri	-14312
▁Mükemmel	-14313
▁Efendimiz	-14314
-09	-14315
▁etek	-14316
▁daral	-14317
▁deyişle	-14318
▁eksiklik	-14319
▁parlament	-14320
▁sıkıntısı	-14321
▁başlattığı	-14322
▁iddiasıyla	-14323
▁bilgilerinizi	-14324
İç	-14325
AMA	-14326
oga	-14327
▁civar	-14328
▁rulet	-14329
▁şaşkın	-14330
diğinden	-14331
▁Beyoğlu	-14332
▁basamak	-14333
▁Festival	-14334
▁Kırıkkale	-14335
▁indirimli	-14336
▁nitelikte	-14337
ery	-14338
▁deg	-14339
▁Fırs	-14340
▁bine	-14341
▁tuhaf	-14342
▁kaybede	-14343
▁Menderes	-14344
▁markanın	-14345
▁süreçleri	-14346
▁seçimlerde	-14347
▁piyasalarında	-14348
?”	-14349
AHA	-14350
▁STK	-14351
▁piyan	-14352
▁Kendisi	-14353
alizasyon	-14354
▁belirler	-14355
▁Konferans	-14356
▁görüntüsü	-14357
▁Çocukların	-14358
▁Teşekkürler	-14359
âs	-14360
-08	-14361
AKİ	-14362
daha	-14363
ılam	-14364
ıyan	-14365
astro	-14366
▁ikil	-14367
▁alçak	-14368
▁iftir	-14369
▁karan	-14370
▁tersi	-14371
▁Başkent	-14372
▁karıştırın	-14373
▁Lu	-14374
rome	-14375
taydı	-14376
▁Oran	-14377
▁burad	-14378
▁müjde	-14379
▁Binali	-14380
▁amatör	-14381
▁anımsat	-14382
▁Şirketi	-14383
▁olduğumu	-14384
▁yetenekli	-14385
▁Afyonkarahisar	-14386
▁//	-14387
kesi	-14388
▁Fur	-14389
▁ağacı	-14390
▁rüyada	-14391
▁suyunu	-14392
▁kapital	-14393
▁mekanik	-14394
▁Danışman	-14395
▁kozmetik	-14396
▁İnceleme	-14397
▁edilirken	-14398
▁göstermeye	-14399
▁niteliğinde	-14400
vri	-14401
Benim	-14402
cıoğlu	-14403
▁damla	-14404
▁KULLAN	-14405
▁oluştu	-14406
▁izlenme	-14407
▁politikaları	-14408
EKİ	-14409
▁Ra	-14410
eşim	-14411
▁Sul	-14412
ANLAR	-14413
▁okut	-14414
▁Sefer	-14415
▁çeker	-14416
▁öncel	-14417
ilasyon	-14418
▁gücüne	-14419
▁çekildi	-14420
▁planlıyor	-14421
kir	-14422
▁2)	-14423
▁78	-14424
▁bulup	-14425
▁Genelde	-14426
▁sonuçta	-14427
▁mesajlar	-14428
▁eğitimini	-14429
▁hususunda	-14430
34	-14431
▁Asıl	-14432
▁akın	-14433
▁Adası	-14434
▁giyen	-14435
▁öldürül	-14436
▁ödemeler	-14437
▁resimleri	-14438
▁insanlığın	-14439
-16	-14440
IMI	-14441
ültü	-14442
▁Nar	-14443
tüdyo	-14444
▁soluk	-14445
▁Kamera	-14446
▁Teslim	-14447
▁yarıda	-14448
▁tamamlanması	-14449
▁Plaj	-14450
▁elle	-14451
▁açlık	-14452
▁geçip	-14453
▁kaydır	-14454
▁Dayanışma	-14455
▁alüminyum	-14456
LİĞİ	-14457
yazı	-14458
▁arm	-14459
▁oğl	-14460
▁şur	-14461
raniye	-14462
▁Getir	-14463
▁projeyi	-14464
▁sağlama	-14465
▁twitter	-14466
▁ekibimiz	-14467
▁kalitede	-14468
ford	-14469
osman	-14470
▁Bende	-14471
▁degil	-14472
▁soruya	-14473
▁Hizmeti	-14474
▁işlerin	-14475
▁hedefleri	-14476
▁içerikler	-14477
▁Day	-14478
▁Rot	-14479
avvuf	-14480
▁Grand	-14481
▁saklı	-14482
▁odalar	-14483
▁yazarak	-14484
▁gündemde	-14485
▁lojistik	-14486
▁hedefleyen	-14487
▁inanıyoruz	-14488
▁görüntülendi	-14489
avir	-14490
stat	-14491
▁bilerek	-14492
▁iddiası	-14493
▁göstermesi	-14494
200	-14495
ign	-14496
uzel	-14497
taraf	-14498
▁Çıkar	-14499
▁hatası	-14500
▁sahası	-14501
▁çalışıyorlar	-14502
Ch	-14503
ıh	-14504
▁Vic	-14505
osuna	-14506
▁atam	-14507
▁host	-14508
▁Doları	-14509
▁ulaşın	-14510
▁sorulan	-14511
▁havalandır	-14512
gâh	-14513
▁360	-14514
▁faş	-14515
▁melek	-14516
▁istenmeyen	-14517
kut	-14518
▁RAM	-14519
▁Tech	-14520
▁suda	-14521
▁filan	-14522
▁sinyalleri	-14523
▁şem	-14524
▁aley	-14525
▁caiz	-14526
▁koyup	-14527
▁teyit	-14528
▁çizen	-14529
general	-14530
▁puanla	-14531
▁faaliyetler	-14532
AND	-14533
atil	-14534
▁izi	-14535
▁miz	-14536
▁sırf	-14537
Avrupa	-14538
▁benzet	-14539
▁lehine	-14540
▁soruyu	-14541
▁Gelişim	-14542
▁senetleri	-14543
Sev	-14544
▁lot	-14545
▁kuşak	-14546
▁telif	-14547
▁yatay	-14548
▁İdare	-14549
▁hayali	-14550
▁şaşırt	-14551
▁coğrafi	-14552
▁kalıntı	-14553
▁Karşıyaka	-14554
▁Türklerin	-14555
ahil	-14556
▁vad	-14557
▁gözyaş	-14558
▁tutarak	-14559
▁kazanıyor	-14560
▁kullanabilir	-14561
▁Vah	-14562
▁Makal	-14563
▁almaz	-14564
▁parsel	-14565
▁açılmış	-14566
▁duygusu	-14567
▁mevduat	-14568
▁seçerek	-14569
ebilirsin	-14570
▁Birlikte	-14571
▁Politika	-14572
▁görülmesi	-14573
▁paylaştığı	-14574
▁my	-14575
▁Şark	-14576
▁Polat	-14577
▁şeytan	-14578
▁depozit	-14579
▁eğitmen	-14580
▁kalmayı	-14581
▁konuşmalar	-14582
▁diyebilirim	-14583
▁çalışmasını	-14584
2/	-14585
isten	-14586
işkin	-14587
ostan	-14588
▁Halı	-14589
▁ilki	-14590
▁Giyim	-14591
▁oynama	-14592
▁görünümü	-14593
▁çikolata	-14594
▁kişilerde	-14595
▁konuşmasını	-14596
SİAD	-14597
iyse	-14598
ımlar	-14599
▁gözaltı	-14600
▁bilgisay	-14601
▁süreleri	-14602
▁üretiminde	-14603
▁yapılmasına	-14604
▁başkanlığında	-14605
İG	-14606
kuş	-14607
▁YÜK	-14608
▁Altun	-14609
ografik	-14610
▁Maltepe	-14611
▁almakta	-14612
▁kahvalt	-14613
▁resimler	-14614
▁ürettiği	-14615
▁kurulacak	-14616
ladıklarını	-14617
▁etkilerini	-14618
▁tasarlanan	-14619
3/	-14620
şan	-14621
aden	-14622
ehmet	-14623
malık	-14624
▁Yangın	-14625
▁Ameliyat	-14626
▁düşündüm	-14627
▁yeteneği	-14628
▁maliyetli	-14629
▁kişilerden	-14630
adil	-14631
taur	-14632
▁Jack	-14633
▁uzlaş	-14634
▁şarap	-14635
▁Akhisar	-14636
▁izleyic	-14637
▁yapılar	-14638
▁etkilenen	-14639
▁miktarını	-14640
▁Bro	-14641
▁sup	-14642
▁Amaç	-14643
▁Ayar	-14644
▁Nokt	-14645
▁Makine	-14646
▁gözlük	-14647
▁tesadüf	-14648
▁vermekte	-14649
▁fikirleri	-14650
▁formasyon	-14651
▁içerikleri	-14652
▁söylüyorum	-14653
gs	-14654
▁69	-14655
▁derim	-14656
▁özlem	-14657
▁maçları	-14658
▁radikal	-14659
eceğinden	-14660
▁Korunması	-14661
ürük	-14662
▁Hid	-14663
▁Yör	-14664
acılığ	-14665
▁Haydar	-14666
▁Hukuku	-14667
▁kentte	-14668
▁çevrim	-14669
▁ülkesi	-14670
emizdeki	-14671
▁bırakarak	-14672
▁76	-14673
anam	-14674
▁tücc	-14675
▁İktis	-14676
▁edilmez	-14677
▁devamını	-14678
▁iktidara	-14679
▁kaydıyla	-14680
▁mahkemeye	-14681
▁arkasından	-14682
▁istiyorlar	-14683
▁desteklemek	-14684
▁işletmelerin	-14685
ÇE	-14686
ado	-14687
▁Up	-14688
stem	-14689
▁Zek	-14690
▁cum	-14691
temiz	-14692
▁Kahve	-14693
▁tanrı	-14694
▁Tamamen	-14695
▁devlete	-14696
▁düştüğü	-14697
▁kitapta	-14698
▁aralığında	-14699
▁endüstriyel	-14700
▁bölgesindeki	-14701
KE	-14702
▁BAL	-14703
▁Takv	-14704
▁yara	-14705
▁Villa	-14706
▁burcu	-14707
▁manev	-14708
▁sözcü	-14709
▁taciz	-14710
▁çorba	-14711
▁Kimdir	-14712
▁Ardahan	-14713
▁ayrılır	-14714
▁projeye	-14715
▁programa	-14716
gıcı	-14717
mark	-14718
▁Yarın	-14719
▁Onları	-14720
▁geçmişi	-14721
▁belirley	-14722
▁uygulanabilir	-14723
��	-14724
ony	-14725
▁BİZ	-14726
▁BELED	-14727
▁kızlar	-14728
▁oturup	-14729
▁pandem	-14730
▁ileriye	-14731
▁kurarak	-14732
▁programın	-14733
▁bulunmuyor	-14734
TP	-14735
lileri	-14736
▁pişman	-14737
▁Rektörü	-14738
▁ilerleme	-14739
▁veriyorum	-14740
▁özelliğine	-14741
▁hayvanların	-14742
▁POL	-14743
oksit	-14744
▁çaresiz	-14745
▁Kullanımı	-14746
▁ederseniz	-14747
ath	-14748
▁Fo	-14749
LAMA	-14750
laki	-14751
▁Gur	-14752
▁Ahşap	-14753
alardaki	-14754
▁çatışma	-14755
▁fiyatını	-14756
▁konuşulan	-14757
▁Hakkımızda	-14758
▁söylediler	-14759
▁çalışacağız	-14760
▁sağlayabilir	-14761
Ul	-14762
▁16.	-14763
▁Rol	-14764
▁giyin	-14765
▁Buraya	-14766
▁Akademi	-14767
▁Demokrat	-14768
▁Ortalama	-14769
▁pantolon	-14770
▁projesinin	-14771
/12	-14772
▁EY	-14773
▁Ley	-14774
▁ili	-14775
▁istiş	-14776
leşmesi	-14777
▁Deneme	-14778
▁Cevapla	-14779
▁bulduğu	-14780
▁Marmaris	-14781
▁katılımı	-14782
▁adresinde	-14783
▁başlamıştı	-14784
DÜR	-14785
▁hele	-14786
▁manuel	-14787
▁yazmaya	-14788
▁bonuslar	-14789
▁etmekten	-14790
▁hepsinin	-14791
ıyer	-14792
madır	-14793
üksel	-14794
▁deli	-14795
▁Yürüy	-14796
▁işlemin	-14797
▁almasını	-14798
▁irtibata	-14799
▁parçalan	-14800
▁söylenen	-14801
▁birbirini	-14802
▁taleplerini	-14803
▁OS	-14804
▁Ercan	-14805
▁Parça	-14806
▁Şenol	-14807
▁Makyaj	-14808
▁Sonrası	-14809
▁koruyan	-14810
▁öncülüğ	-14811
▁paylaşan	-14812
▁sağlamış	-14813
▁göstermiş	-14814
dr	-14815
▁za	-14816
dine	-14817
işik	-14818
▁Erg	-14819
▁Fuat	-14820
▁Hele	-14821
enizin	-14822
▁devred	-14823
▁Korkmaz	-14824
▁ortamlarda	-14825
▁seviyesini	-14826
▁sw	-14827
iyen	-14828
▁rüzg	-14829
▁şube	-14830
osunda	-14831
▁yorul	-14832
▁adında	-14833
▁Otelleri	-14834
tij	-14835
İYAS	-14836
▁damg	-14837
▁Aktif	-14838
▁pasta	-14839
▁yolla	-14840
ladığım	-14841
▁Yüzyıl	-14842
▁sürülen	-14843
dest	-14844
▁cari	-14845
▁karg	-14846
▁krit	-14847
▁Hatip	-14848
▁James	-14849
▁doyur	-14850
▁Cinsel	-14851
▁Yağmur	-14852
▁dilekç	-14853
▁iyisini	-14854
▁değerlendirdi	-14855
ûm	-14856
alın	-14857
evre	-14858
sten	-14859
ıdır	-14860
ıfır	-14861
▁18.	-14862
▁Cad	-14863
▁Win	-14864
ıcının	-14865
▁Yaşanan	-14866
diğinizde	-14867
▁Beslenme	-14868
▁Verilerin	-14869
▁anlaşması	-14870
▁hayvanlar	-14871
▁İşin	-14872
cistan	-14873
▁Kalem	-14874
▁Yavaş	-14875
▁aydan	-14876
▁taşıt	-14877
▁Bitlis	-14878
▁Tunceli	-14879
▁şekillerde	-14880
delen	-14881
▁arsa	-14882
çıları	-14883
osistem	-14884
▁Meydan	-14885
▁Sizlere	-14886
▁kendinden	-14887
▁süresinin	-14888
▁sıralarda	-14889
▁ödüllendir	-14890
▁kullandığınız	-14891
▁İmparatorluğu	-14892
YO	-14893
vir	-14894
▁Şam	-14895
▁astr	-14896
▁kolu	-14897
▁pank	-14898
▁başbakan	-14899
▁üyelerin	-14900
▁şiddetle	-14901
▁Ulaştırma	-14902
▁salonunda	-14903
▁Alternatif	-14904
▁bölümünden	-14905
ibr	-14906
İYAT	-14907
▁Sib	-14908
▁Vis	-14909
eddüt	-14910
▁Benz	-14911
▁kimler	-14912
▁gittikçe	-14913
▁romantik	-14914
DS	-14915
gıt	-14916
izli	-14917
mışlar	-14918
▁asist	-14919
▁soğut	-14920
mayınız	-14921
▁sağlığ	-14922
▁sandaly	-14923
▁ifadeler	-14924
▁seçimler	-14925
▁fiyatların	-14926
3,	-14927
5)	-14928
▁pe	-14929
▁Şem	-14930
▁Usul	-14931
▁Inter	-14932
▁babam	-14933
▁Bireysel	-14934
▁aileleri	-14935
▁Dekorasyon	-14936
-04	-14937
-07	-14938
iyye	-14939
▁OLM	-14940
▁pot	-14941
etice	-14942
▁vakt	-14943
amadık	-14944
▁Alanı	-14945
▁Günde	-14946
▁otelde	-14947
▁Borsası	-14948
▁almıştı	-14949
▁edebiliyor	-14950
▁hab	-14951
tığına	-14952
▁mutab	-14953
▁Karaca	-14954
▁Vadisi	-14955
▁uğruna	-14956
▁ekranda	-14957
▁oynamaya	-14958
▁vermeyen	-14959
juv	-14960
▁dib	-14961
▁Ceylan	-14962
▁türden	-14963
▁çıkarıl	-14964
▁kartları	-14965
▁liderlik	-14966
▁yemekler	-14967
▁sitelerin	-14968
▁başvuruları	-14969
iban	-14970
ımlı	-14971
▁MAN	-14972
▁OSB	-14973
sünüz	-14974
İZMET	-14975
▁DÜNYA	-14976
▁hakik	-14977
liliğin	-14978
▁alıntı	-14979
▁kaymak	-14980
▁yetkin	-14981
▁çeviri	-14982
▁savunan	-14983
▁ulaşmış	-14984
▁Ataşehir	-14985
▁ürünlere	-14986
▁Gümüşhane	-14987
▁mühendislik	-14988
▁isteyenlerin	-14989
▁yi	-14990
ğdır	-14991
dıran	-14992
örler	-14993
▁ÖSYM	-14994
▁Stadı	-14995
▁çekil	-14996
▁polisi	-14997
▁Öcalan	-14998
▁oteller	-14999
▁gönderen	-15000
▁tepkiler	-15001
▁seviyeleri	-15002
Kır	-15003
▁BİN	-15004
ETLER	-15005
▁laik	-15006
▁Aşırı	-15007
▁Kimse	-15008
▁zihin	-15009
▁Kalesi	-15010
▁aniden	-15011
▁siteyi	-15012
▁Endeksi	-15013
▁cihazın	-15014
▁Teşkilatı	-15015
▁kişilerle	-15016
▁bulunabilir	-15017
▁çıkarılması	-15018
▁International	-15019
▁kullanılmıştır	-15020
ındayız	-15021
▁dinley	-15022
▁sürücüsü	-15023
▁beklediği	-15024
▁bölümleri	-15025
▁başlarında	-15026
▁zorunluluğu	-15027
▁Müslümanların	-15028
enni	-15029
evet	-15030
oint	-15031
▁TAN	-15032
▁Vide	-15033
▁vazif	-15034
▁işçinin	-15035
▁kolları	-15036
▁vaziyet	-15037
▁bulunmuştur	-15038
arş	-15039
▁88	-15040
▁350	-15041
▁cal	-15042
▁rit	-15043
▁Seni	-15044
▁indi	-15045
osunun	-15046
▁Turnuv	-15047
▁büyüsü	-15048
▁temeli	-15049
▁çevreye	-15050
▁hacklink	-15051
▁kurtuluş	-15052
▁görüşlerini	-15053
Uz	-15054
bab	-15055
▁nur	-15056
▁Hadi	-15057
▁Tipi	-15058
▁ruhu	-15059
▁Yatak	-15060
▁efend	-15061
▁fidan	-15062
▁uygar	-15063
▁karışımı	-15064
▁videolar	-15065
▁Tarifleri	-15066
▁biyolojik	-15067
▁Müşteriler	-15068
enç	-15069
cası	-15070
▁Ecz	-15071
işimi	-15072
▁Burs	-15073
▁kopy	-15074
lamadan	-15075
▁medyum	-15076
▁riskleri	-15077
▁ekleyerek	-15078
▁sağlamaya	-15079
Kim	-15080
ruz	-15081
▁5,	-15082
▁6,	-15083
Yorum	-15084
▁Club	-15085
▁hırs	-15086
▁DEVAM	-15087
▁Sahil	-15088
▁gövde	-15089
▁kanlı	-15090
▁oynar	-15091
▁rakibi	-15092
▁türkçe	-15093
▁başaran	-15094
▁öğrendim	-15095
▁yakalamak	-15096
my	-15097
▁Sap	-15098
▁ulus	-15099
▁ekley	-15100
▁Bağımsız	-15101
▁geçmeden	-15102
▁kalkınma	-15103
▁büyüklüğü	-15104
▁karikatür	-15105
ella	-15106
▁nevi	-15107
▁dolay	-15108
--------	-15109
▁alabilmek	-15110
▁bankaların	-15111
▁30'	-15112
▁Tir	-15113
azırda	-15114
▁Coşkun	-15115
▁koyarak	-15116
▁tercihi	-15117
▁heyecanı	-15118
abilitasyon	-15119
▁tartışmalar	-15120
▁sub	-15121
▁BIST	-15122
▁Yeri	-15123
▁coin	-15124
▁öğün	-15125
▁Refer	-15126
▁konulara	-15127
[...]
